<pad>	0
<unk>	0
<s>	0
</s>	0
in	-0
▁t	-1
▁a	-2
en	-3
es	-4
on	-5
at	-6
er	-7
▁th	-8
▁s	-9
nd	-10
ed	-11
al	-12
or	-13
▁p	-14
ar	-15
ing	-16
▁the	-17
▁r	-18
ion	-19
▁and	-20
▁in	-21
▁c	-22
▁f	-23
▁o	-24
ent	-25
ic	-26
▁w	-27
ro	-28
▁of	-29
▁m	-30
el	-31
ch	-32
an	-33
st	-34
▁d	-35
im	-36
ation	-37
it	-38
▁b	-39
ur	-40
le	-41
▁h	-42
▁e	-43
ve	-44
▁to	-45
▁re	-46
▁st	-47
ce	-48
ra	-49
et	-50
ies	-51
is	-52
od	-53
ir	-54
ment	-55
ut	-56
▁for	-57
ct	-58
ess	-59
em	-60
ers	-61
▁g	-62
pl	-63
om	-64
as	-65
se	-66
ab	-67
gh	-68
▁l	-69
▁con	-70
iz	-71
▁ex	-72
▁n	-73
und	-74
▁int	-75
ul	-76
▁sh	-77
ol	-78
ist	-79
qu	-80
ly	-81
▁de	-82
ci	-83
ical	-84
ath	-85
id	-86
imp	-87
▁mod	-88
th	-89
▁T	-90
▁wh	-91
▁on	-92
ap	-93
ver	-94
▁A	-95
if	-96
▁pro	-97
ate	-98
ard	-99
ence	-100
ugh	-101
▁E	-102
▁as	-103
ay	-104
▁res	-105
▁I	-106
▁com	-107
he	-108
ions	-109
re	-110
ime	-111
and	-112
▁time	-113
▁imp	-114
pt	-115
▁R	-116
▁that	-117
▁tho	-118
veal	-119
▁reveal	-120
▁ro	-121
ust	-122
ations	-123
▁comp	-124
▁inter	-125
ward	-126
▁them	-127
ow	-128
ten	-129
ge	-130
ot	-131
▁ac	-132
▁sp	-133
ad	-134
▁be	-135
▁ad	-136
ays	-137
rough	-138
ts	-139
▁le	-140
il	-141
ures	-142
ov	-143
▁su	-144
orm	-145
ant	-146
▁an	-147
▁model	-148
entur	-149
ive	-150
▁v	-151
am	-152
ance	-153
▁pr	-154
are	-155
▁ar	-156
▁tra	-157
per	-158
▁The	-159
enc	-160
form	-161
ments	-162
ine	-163
ories	-164
ning	-165
vel	-166
ect	-167
▁tr	-168
ke	-169
ach	-170
able	-171
▁met	-172
ds	-173
ear	-174
ig	-175
▁cont	-176
▁such	-177
round	-178
▁impro	-179
▁wor	-180
ower	-181
▁power	-182
▁str	-183
ep	-184
ld	-185
oes	-186
▁those	-187
earch	-188
▁their	-189
ted	-190
▁As	-191
▁world	-192
▁around	-193
▁path	-194
ifted	-195
oke	-196
▁spoke	-197
▁revealing	-198
▁shifted	-199
▁through	-200
▁exper	-201
ational	-202
ently	-203
ity	-204
▁lear	-205
hod	-206
▁learning	-207
▁method	-208
▁S	-209
▁by	-210
aliz	-211
▁te	-212
ary	-213
ific	-214
ave	-215
▁have	-216
▁at	-217
▁models	-218
▁mem	-219
▁acc	-220
un	-221
ics	-222
ces	-223
▁L	-224
ural	-225
iment	-226
cal	-227
▁experiment	-228
▁ap	-229
ith	-230
um	-231
▁pl	-232
▁comput	-233
ice	-234
▁dist	-235
ged	-236
ory	-237
og	-238
ern	-239
ial	-240
ization	-241
▁role	-242
▁modern	-243
▁bre	-244
mental	-245
▁en	-246
chn	-247
yst	-248
▁gl	-249
▁with	-250
olog	-251
▁lon	-252
us	-253
igh	-254
▁techn	-255
op	-256
ptim	-257
lu	-258
▁inf	-259
▁centur	-260
▁arch	-261
▁scal	-262
ener	-263
▁optim	-264
▁long	-265
ain	-266
Us	-267
PUs	-268
▁improve	-269
emat	-270
▁experimentation	-271
athemat	-272
amet	-273
aramet	-274
itect	-275
▁mathemat	-276
▁gener	-277
▁per	-278
▁mathematical	-279
▁rob	-280
▁perform	-281
▁performance	-282
▁architect	-283
▁generaliz	-284
▁plays	-285
▁architectures	-286
ends	-287
ss	-288
▁ch	-289
ystem	-290
cess	-291
edge	-292
▁system	-293
cipl	-294
▁systems	-295
cient	-296
▁has	-297
uct	-298
▁paramet	-299
▁parameters	-300
ks	-301
quir	-302
ip	-303
ress	-304
▁shap	-305
ry	-306
▁In	-307
▁O	-308
iel	-309
▁fiel	-310
ines	-311
velop	-312
▁develop	-313
▁when	-314
▁shaped	-315
van	-316
etw	-317
▁forg	-318
▁ancient	-319
▁research	-320
ble	-321
ms	-322
▁appl	-323
▁influ	-324
ied	-325
▁centuries	-326
▁within	-327
nov	-328
▁innov	-329
▁we	-330
ib	-331
ders	-332
▁weigh	-333
ud	-334
▁stud	-335
▁un	-336
ative	-337
ans	-338
▁H	-339
iv	-340
ang	-341
uth	-342
otten	-343
▁forgotten	-344
▁truth	-345
ined	-346
ility	-347
ateg	-348
▁strateg	-349
ric	-350
▁C	-351
ross	-352
▁process	-353
ign	-354
idd	-355
idden	-356
▁hidden	-357
iscipl	-358
ses	-359
elf	-360
▁is	-361
▁proble	-362
eg	-363
▁requir	-364
▁exist	-365
▁sen	-366
rit	-367
seen	-368
▁unseen	-369
pon	-370
very	-371
utions	-372
ract	-373
▁respon	-374
atural	-375
ability	-376
ac	-377
ition	-378
▁vis	-379
oul	-380
erat	-381
▁was	-382
act	-383
▁se	-384
▁expl	-385
▁fund	-386
oy	-387
amental	-388
por	-389
▁fundamental	-390
its	-391
lex	-392
▁explor	-393
ander	-394
ek	-395
▁problems	-396
ell	-397
▁into	-398
gan	-399
▁only	-400
▁who	-401
ring	-402
▁shoul	-403
ploy	-404
▁complex	-405
isp	-406
ared	-407
▁car	-408
▁began	-409
▁requires	-410
ispers	-411
▁step	-412
▁press	-413
▁fra	-414
▁sense	-415
▁Leg	-416
▁her	-417
▁Each	-418
▁seek	-419
▁forward	-420
ways	-421
▁carry	-422
▁weight	-423
▁frag	-424
▁existed	-425
▁stories	-426
▁carrying	-427
▁revealed	-428
▁forces	-429
▁traged	-430
▁pathways	-431
▁fragments	-432
▁ech	-433
▁stir	-434
andered	-435
▁echoes	-436
▁Legends	-437
▁stirring	-438
▁wandered	-439
▁shoulders	-440
oven	-441
▁air	-442
▁fab	-443
▁dared	-444
▁woven	-445
▁fabric	-446
▁heroes	-447
▁pressed	-448
▁whispers	-449
▁tragedies	-450
ff	-451
olv	-452
▁fre	-453
▁pa	-454
▁across	-455
▁pres	-456
▁though	-457
gress	-458
▁pract	-459
age	-460
▁nar	-461
discipl	-462
ications	-463
▁dat	-464
▁y	-465
▁not	-466
▁natural	-467
▁applications	-468
ak	-469
used	-470
▁sign	-471
rib	-472
▁computational	-473
ployment	-474
ese	-475
▁its	-476
▁deployment	-477
ors	-478
▁signific	-479
▁development	-480
▁significant	-481
▁these	-482
row	-483
▁fe	-484
ited	-485
▁had	-486
▁cap	-487
com	-488
ull	-489
▁deep	-490
▁writ	-491
▁Ad	-492
▁fut	-493
tw	-494
▁frequ	-495
▁capable	-496
hap	-497
▁gu	-498
ands	-499
▁cho	-500
▁itself	-501
▁frequently	-502
▁wa	-503
▁guid	-504
▁written	-505
▁yet	-506
▁feel	-507
▁toward	-508
▁bur	-509
▁distant	-510
head	-511
▁presence	-512
▁response	-513
▁narrow	-514
▁edge	-515
haping	-516
▁ventur	-517
▁Every	-518
▁lands	-519
▁feeling	-520
▁onward	-521
▁memories	-522
▁fate	-523
twined	-524
▁buried	-525
▁paused	-526
▁guiding	-527
▁reshaping	-528
▁intertwined	-529
▁Rum	-530
▁pull	-531
athing	-532
impses	-533
▁ahead	-534
▁revel	-535
▁Rumors	-536
▁choice	-537
▁gently	-538
▁waited	-539
▁futures	-540
▁visions	-541
▁glimpses	-542
▁narrowed	-543
▁ventured	-544
▁breathing	-545
▁revelations	-546
▁advan	-547
▁eff	-548
ienc	-549
▁G	-550
▁fo	-551
▁influenc	-552
ize	-553
▁found	-554
dition	-555
▁foundational	-556
▁F	-557
▁ne	-558
▁trans	-559
ging	-560
▁progress	-561
ful	-562
angu	-563
▁langu	-564
areful	-565
ult	-566
▁strategies	-567
ues	-568
▁must	-569
▁language	-570
▁careful	-571
▁M	-572
▁ev	-573
cept	-574
▁concept	-575
▁technolog	-576
eal	-577
ealth	-578
▁und	-579
ques	-580
▁under	-581
▁memory	-582
stand	-583
▁health	-584
oth	-585
▁optimization	-586
▁bat	-587
gine	-588
▁processing	-589
inary	-590
olic	-591
▁En	-592
▁stat	-593
olicy	-594
▁policy	-595
▁statist	-596
ie	-597
▁Has	-598
ill	-599
pro	-600
▁art	-601
uction	-602
mp	-603
▁Res	-604
▁Research	-605
olving	-606
abl	-607
▁solving	-608
▁scale	-609
▁fields	-610
standing	-611
▁Researchers	-612
▁enabl	-613
▁accel	-614
▁accelerat	-615
▁reg	-616
ure	-617
istor	-618
ellig	-619
disciplinary	-620
elligence	-621
ex	-622
ificial	-623
str	-624
gence	-625
▁contex	-626
vergence	-627
achine	-628
▁intelligence	-629
▁artificial	-630
iven	-631
▁data	-632
▁It	-633
ason	-634
▁reason	-635
cial	-636
▁reasoning	-637
▁fin	-638
▁robot	-639
▁techni	-640
▁tas	-641
chie	-642
▁achie	-643
▁tasks	-644
▁robotics	-645
▁techniques	-646
ware	-647
▁understanding	-648
▁hard	-649
▁achieve	-650
apid	-651
▁distrib	-652
▁statistical	-653
▁Over	-654
▁rapid	-655
▁enabling	-656
care	-657
aging	-658
▁finance	-659
▁hardware	-660
▁healthcare	-661
▁accelerated	-662
▁GPUs	-663
▁improvements	-664
▁explored	-665
▁lever	-666
▁practice	-667
▁generalizable	-668
▁TPUs	-669
▁leveraging	-670
▁distributions	-671
ob	-672
ential	-673
ced	-674
ness	-675
eng	-676
▁contin	-677
▁dr	-678
▁regul	-679
▁effic	-680
▁ess	-681
iency	-682
▁essential	-683
▁efficiency	-684
istorical	-685
ains	-686
▁des	-687
empor	-688
emporary	-689
▁contemporary	-690
ere	-691
ars	-692
▁Engine	-693
▁Ar	-694
▁exam	-695
▁man	-696
ally	-697
een	-698
etween	-699
▁between	-700
▁theory	-701
▁machine	-702
rain	-703
▁impact	-704
▁prod	-705
ves	-706
ized	-707
▁where	-708
ining	-709
acy	-710
▁becom	-711
▁size	-712
play	-713
▁training	-714
▁bill	-715
▁advanced	-716
▁become	-717
ength	-718
▁rate	-719
▁accur	-720
just	-721
pted	-722
▁const	-723
▁robust	-724
ditionally	-725
▁ado	-726
▁break	-727
▁adopted	-728
▁Its	-729
▁influenced	-730
▁accuracy	-731
▁production	-732
through	-733
▁regular	-734
▁constrain	-735
▁billions	-736
▁strength	-737
▁constraints	-738
▁mana	-739
elines	-740
▁adjust	-741
▁continues	-742
▁breakthrough	-743
▁drive	-744
▁Additionally	-745
▁compute	-746
▁convergence	-747
▁innovations	-748
▁breakthroughs	-749
▁batch	-750
▁carefully	-751
▁robustness	-752
▁pip	-753
▁managed	-754
▁scaling	-755
▁improves	-756
▁Engineers	-757
▁interplay	-758
▁optimized	-759
▁pipelines	-760
▁regularization	-761
▁P	-762
iron	-763
viron	-764
▁studies	-765
▁qu	-766
ira	-767
ort	-768
▁D	-769
▁ref	-770
etwor	-771
▁networ	-772
▁networks	-773
▁emp	-774
aly	-775
▁Th	-776
uman	-777
cent	-778
▁human	-779
▁environ	-780
▁eth	-781
chol	-782
cholars	-783
▁innovation	-784
av	-785
▁study	-786
▁so	-787
▁spe	-788
▁speci	-789
▁field	-790
idence	-791
▁evidence	-792
▁dom	-793
▁historical	-794
▁domains	-795
▁Is	-796
▁both	-797
▁technological	-798
obal	-799
▁k	-800
▁global	-801
▁ab	-802
itative	-803
▁lo	-804
▁K	-805
▁me	-806
▁appro	-807
▁co	-808
▁transform	-809
▁import	-810
▁dec	-811
ologies	-812
▁N	-813
▁contexts	-814
▁methodologies	-815
▁val	-816
▁approach	-817
▁approaches	-818
ange	-819
pr	-820
ting	-821
▁sim	-822
▁cult	-823
onstr	-824
▁social	-825
▁impacts	-826
erm	-827
alen	-828
▁Thalen	-829
▁For	-830
now	-831
ely	-832
out	-833
▁know	-834
▁Riven	-835
ade	-836
hip	-837
yra	-838
▁Lyra	-839
▁about	-840
▁Mira	-841
ledge	-842
▁knowledge	-843
▁Ser	-844
▁Seris	-845
▁Aren	-846
mun	-847
ple	-848
▁over	-849
sis	-850
land	-851
ilar	-852
▁example	-853
ision	-854
landor	-855
▁Elandor	-856
▁similar	-857
▁set	-858
▁dem	-859
▁meas	-860
▁cultural	-861
▁recent	-862
▁demonstr	-863
▁measur	-864
▁decision	-865
▁demonstrate	-866
tings	-867
▁settings	-868
▁measurable	-869
▁Ka	-870
▁trad	-871
▁Kael	-872
▁cons	-873
▁go	-874
▁1	-875
▁how	-876
ue	-877
ates	-878
uc	-879
term	-880
▁are	-881
▁equ	-882
▁commun	-883
▁access	-884
stit	-885
▁instit	-886
▁analy	-887
▁institutions	-888
ucation	-889
▁analysis	-890
▁V	-891
▁Con	-892
▁processes	-893
ack	-894
edic	-895
port	-896
ide	-897
fer	-898
▁they	-899
▁ind	-900
oc	-901
ru	-902
aking	-903
yn	-904
vern	-905
▁inform	-906
▁govern	-907
▁interact	-908
▁indust	-909
making	-910
alized	-911
▁interactions	-912
ynam	-913
▁rel	-914
▁examines	-915
▁dynam	-916
▁dynamics	-917
▁influence	-918
▁transformative	-919
▁out	-920
▁cru	-921
▁crucial	-922
ider	-923
▁Advan	-924
▁Advances	-925
▁consider	-926
pret	-927
▁context	-928
ais	-929
preting	-930
▁theories	-931
▁refine	-932
▁add	-933
▁ethical	-934
▁equity	-935
▁address	-936
has	-937
▁environmental	-938
▁outcom	-939
▁Scholars	-940
▁outcomes	-941
▁emphas	-942
▁trade	-943
ective	-944
hav	-945
ior	-946
bates	-947
▁advances	-948
havior	-949
▁behavior	-950
ustain	-951
lect	-952
nect	-953
▁sustain	-954
ices	-955
iveness	-956
▁connect	-957
▁reflect	-958
▁practices	-959
▁often	-960
irical	-961
▁empirical	-962
▁this	-963
▁sub	-964
edicine	-965
▁19	-966
▁Rel	-967
▁tex	-968
iterat	-969
iterature	-970
ich	-971
ated	-972
yp	-973
est	-974
clu	-975
clud	-976
fic	-977
▁ed	-978
▁new	-979
▁information	-980
▁plan	-981
▁Pl	-982
▁prin	-983
sive	-984
▁technology	-985
▁al	-986
uses	-987
▁specific	-988
▁St	-989
ciples	-990
▁principles	-991
▁range	-992
▁planning	-993
cludes	-994
ast	-995
▁struct	-996
▁wide	-997
▁industry	-998
▁specialized	-999
▁B	-1000
▁education	-1001
▁led	-1002
▁explore	-1003
▁Includes	-1004
disciplines	-1005
▁Plays	-1006
▁strategic	-1007
▁influencing	-1008
▁governmental	-1009
quiry	-1010
▁structures	-1011
▁inquiry	-1012
▁medicine	-1013
▁transport	-1014
▁environments	-1015
oll	-1016
made	-1017
▁Foc	-1018
▁Focuses	-1019
▁transportation	-1020
ypoth	-1021
▁hypoth	-1022
▁lar	-1023
▁hypothes	-1024
▁mult	-1025
▁related	-1026
ication	-1027
▁compar	-1028
▁century	-1029
▁experimental	-1030
▁valid	-1031
▁developments	-1032
abor	-1033
▁hypotheses	-1034
▁comparative	-1035
▁validate	-1036
▁Relies	-1037
▁importance	-1038
iple	-1039
aises	-1040
▁considerations	-1041
▁interpreting	-1042
▁multiple	-1043
▁Raises	-1044
▁emphasize	-1045
▁coll	-1046
struct	-1047
▁Of	-1048
▁collabor	-1049
ince	-1050
▁span	-1051
▁collaboration	-1052
▁Often	-1053
ody	-1054
▁applied	-1055
▁communication	-1056
▁back	-1057
structure	-1058
▁since	-1059
rastructure	-1060
▁infrastructure	-1061
▁body	-1062
▁larg	-1063
▁due	-1064
ribut	-1065
▁Cont	-1066
▁texts	-1067
▁scholars	-1068
▁dating	-1069
▁local	-1070
▁tradition	-1071
▁rich	-1072
▁scholarship	-1073
▁ethics	-1074
▁literature	-1075
ovel	-1076
▁novel	-1077
▁experienc	-1078
▁largely	-1079
▁experienced	-1080
ributes	-1081
▁debates	-1082
▁Contributes	-1083
▁sustainability	-1084
▁chang	-1085
ply	-1086
▁myst	-1087
▁changes	-1088
▁connected	-1089
▁reflecting	-1090
eply	-1091
▁deeply	-1092
▁theor	-1093
▁well	-1094
▁Dav	-1095
▁mo	-1096
elra	-1097
▁Velra	-1098
etical	-1099
vis	-1100
▁Em	-1101
volv	-1102
▁theoretical	-1103
raw	-1104
▁exten	-1105
▁quant	-1106
▁draw	-1107
▁qual	-1108
volves	-1109
uper	-1110
▁extensive	-1111
▁qualitative	-1112
▁quantitative	-1113
vised	-1114
▁drawing	-1115
▁Involves	-1116
upervised	-1117
▁Davor	-1118
tin	-1119
alyx	-1120
▁Calyx	-1121
ene	-1122
tiny	-1123
▁destiny	-1124
orin	-1125
▁Sorin	-1126
sequ	-1127
▁Sel	-1128
▁Selene	-1129
▁Nira	-1130
##	-1131
ology	-1132
▁Or	-1133
▁loss	-1134
▁Orin	-1135
ges	-1136
▁Arin	-1137
▁ag	-1138
ord	-1139
▁av	-1140
▁offer	-1141
▁pers	-1142
▁need	-1143
▁again	-1144
▁against	-1145
ral	-1146
alu	-1147
rop	-1148
▁dep	-1149
▁cent	-1150
▁evalu	-1151
ordin	-1152
▁coordin	-1153
erv	-1154
mentation	-1155
▁coordination	-1156
▁central	-1157
▁Tr	-1158
▁Trans	-1159
▁neural	-1160
ous	-1161
ther	-1162
lo	-1163
os	-1164
ences	-1165
omp	-1166
20	-1167
▁Re	-1168
urther	-1169
supervised	-1170
▁sug	-1171
▁sugges	-1172
▁suggests	-1173
ons	-1174
▁Emer	-1175
enues	-1176
▁avenues	-1177
▁Emerging	-1178
ake	-1179
▁important	-1180
▁This	-1181
▁less	-1182
▁enc	-1183
▁Historical	-1184
▁trends	-1185
▁ob	-1186
▁lessons	-1187
▁Rob	-1188
▁high	-1189
ights	-1190
▁short	-1191
hol	-1192
▁consequ	-1193
▁consequences	-1194
ering	-1195
akehol	-1196
▁gains	-1197
akeholders	-1198
pective	-1199
▁Stakeholders	-1200
du	-1201
▁perspective	-1202
▁effect	-1203
par	-1204
▁highl	-1205
▁highlights	-1206
▁necess	-1207
▁Further	-1208
▁obs	-1209
▁necessary	-1210
▁Imp	-1211
▁resul	-1212
▁results	-1213
▁transpar	-1214
▁evaluate	-1215
lementation	-1216
rics	-1217
▁effectiveness	-1218
▁depends	-1219
▁repro	-1220
▁metrics	-1221
▁transparent	-1222
▁observ	-1223
▁Implementation	-1224
▁Robust	-1225
▁reprodu	-1226
cible	-1227
▁reproducible	-1228
ert	-1229
▁(	-1230
wor	-1231
▁pre	-1232
ating	-1233
alization	-1234
atory	-1235
onom	-1236
▁norm	-1237
▁normalization	-1238
▁can	-1239
elest	-1240
▁celest	-1241
▁celestial	-1242
▁observatory	-1243
▁Ph	-1244
ley	-1245
oders	-1246
▁flo	-1247
▁city	-1248
▁floating	-1249
ional	-1250
ery	-1251
ient	-1252
ept	-1253
irth	-1254
rad	-1255
▁cl	-1256
▁reb	-1257
▁valley	-1258
▁mystery	-1259
▁rebirth	-1260
▁desert	-1261
unt	-1262
▁mystic	-1263
▁fear	-1264
radient	-1265
▁descent	-1266
ope	-1267
iet	-1268
dom	-1269
▁stars	-1270
▁hope	-1271
ingdom	-1272
▁lonely	-1273
▁starship	-1274
▁kingdom	-1275
▁forest	-1276
owed	-1277
ose	-1278
▁har	-1279
rine	-1280
▁quiet	-1281
untain	-1282
▁shrine	-1283
▁mountain	-1284
bor	-1285
sw	-1286
gor	-1287
rary	-1288
lit	-1289
olis	-1290
▁cit	-1291
ibrary	-1292
▁Transform	-1293
▁ru	-1294
yon	-1295
ities	-1296
▁transformation	-1297
ropolis	-1298
▁ruined	-1299
▁metropolis	-1300
▁harbor	-1301
andon	-1302
▁library	-1303
worn	-1304
onlit	-1305
andoned	-1306
▁moonlit	-1307
▁abandoned	-1308
▁pur	-1309
adel	-1310
▁coast	-1311
▁citadel	-1312
pose	-1313
adowed	-1314
swept	-1315
▁storm	-1316
▁canyon	-1317
▁shadowed	-1318
▁bet	-1319
▁purpose	-1320
▁cour	-1321
gorith	-1322
ray	-1323
tions	-1324
▁courage	-1325
▁sil	-1326
▁silence	-1327
rayal	-1328
▁betrayal	-1329
▁algorith	-1330
tle	-1331
▁design	-1332
###	-1333
▁###	-1334
▁forgiveness	-1335
anted	-1336
▁ench	-1337
▁glade	-1338
▁enchanted	-1339
ground	-1340
▁battle	-1341
▁algorithms	-1342
cience	-1343
▁battleground	-1344
gression	-1345
▁regression	-1346
▁U	-1347
oph	-1348
▁20	-1349
ilos	-1350
ilosoph	-1351
▁Philosoph	-1352
asses	-1353
▁encomp	-1354
▁encompasses	-1355
conom	-1356
▁De	-1357
ag	-1358
ark	-1359
▁methods	-1360
▁di	-1361
▁Cross	-1362
ature	-1363
equ	-1364
ata	-1365
▁Data	-1366
emi	-1367
▁engine	-1368
ention	-1369
▁engineering	-1370
rom	-1371
so	-1372
ub	-1373
▁from	-1374
ivers	-1375
▁also	-1376
▁area	-1377
ph	-1378
ual	-1379
ulture	-1380
▁but	-1381
olut	-1382
▁work	-1383
ubl	-1384
ological	-1385
urces	-1386
▁Comp	-1387
cientific	-1388
ile	-1389
reat	-1390
king	-1391
raph	-1392
▁ques	-1393
▁Comput	-1394
ivity	-1395
ciet	-1396
▁change	-1397
▁unc	-1398
ibility	-1399
▁crit	-1400
▁clim	-1401
ives	-1402
enom	-1403
▁Ne	-1404
▁respons	-1405
▁critical	-1406
▁questions	-1407
▁"	-1408
▁prev	-1409
▁responsibility	-1410
▁exch	-1411
▁exchange	-1412
▁effective	-1413
▁societ	-1414
▁Computer	-1415
▁thin	-1416
▁communities	-1417
▁while	-1418
ublic	-1419
▁thinking	-1420
▁num	-1421
▁societies	-1422
igning	-1423
▁designing	-1424
istory	-1425
volut	-1426
▁History	-1427
).	-1428
ian	-1429
▁Environ	-1430
▁numer	-1431
te	-1432
itions	-1433
och	-1434
▁Te	-1435
▁concepts	-1436
osition	-1437
▁Ed	-1438
ari	-1439
▁bro	-1440
urr	-1441
▁broad	-1442
▁Techn	-1443
▁traditions	-1444
▁numerous	-1445
astic	-1446
▁gradient	-1447
ositional	-1448
▁Stoch	-1449
▁Stochastic	-1450
oding	-1451
▁encoding	-1452
▁Positional	-1453
atch	-1454
urrent	-1455
▁Self	-1456
▁Rec	-1457
▁Hy	-1458
▁aut	-1459
▁Econom	-1460
▁Un	-1461
▁Education	-1462
esent	-1463
▁Batch	-1464
▁Hyper	-1465
paramet	-1466
parameter	-1467
▁Culture	-1468
▁Hyperparameter	-1469
▁Car	-1470
ding	-1471
volutional	-1472
▁Convolutional	-1473
▁Recurrent	-1474
present	-1475
▁Economics	-1476
▁Transfer	-1477
ok	-1478
▁represent	-1479
vers	-1480
▁Gener	-1481
▁Mon	-1482
▁Vari	-1483
ropy	-1484
entropy	-1485
ens	-1486
▁Q	-1487
▁Carlo	-1488
▁Monte	-1489
▁Generative	-1490
bed	-1491
oenc	-1492
▁autoenc	-1493
▁Variational	-1494
▁autoencoders	-1495
bedding	-1496
▁divergence	-1497
▁representations	-1498
▁Embedding	-1499
for	-1500
ayer	-1501
▁Mark	-1502
▁Natural	-1503
to	-1504
▁KL	-1505
arial	-1506
versarial	-1507
▁Layer	-1508
▁adversarial	-1509
▁Markov	-1510
▁Qu	-1511
ec	-1512
▁Sequ	-1513
▁decoders	-1514
▁Transformer	-1515
▁Sequence	-1516
sequence	-1517
oken	-1518
uning	-1519
▁Graph	-1520
▁Quant	-1521
▁Token	-1522
▁Tokenization	-1523
▁Fe	-1524
▁pruning	-1525
▁Quantization	-1526
pag	-1527
▁vision	-1528
▁ser	-1529
propag	-1530
propagation	-1531
aw	-1532
▁Cl	-1533
▁Back	-1534
force	-1535
inforce	-1536
▁Backpropagation	-1537
inforcement	-1538
▁series	-1539
▁Neural	-1540
▁Reinforcement	-1541
▁Semi	-1542
ecast	-1543
▁Time	-1544
cessing	-1545
ecasting	-1546
▁forecasting	-1547
processing	-1548
▁At	-1549
▁preprocessing	-1550
inear	-1551
▁Deep	-1552
chan	-1553
▁Linear	-1554
esian	-1555
▁Bay	-1556
ustering	-1557
▁Supervised	-1558
▁red	-1559
▁mechan	-1560
▁Bayesian	-1561
▁Lar	-1562
▁Clustering	-1563
▁mechanis	-1564
▁Machine	-1565
▁Large	-1566
tention	-1567
istic	-1568
▁mechanisms	-1569
▁Attention	-1570
▁statistics	-1571
▁Feature	-1572
imens	-1573
▁202	-1574
▁reduction	-1575
▁Transformers	-1576
▁Dimens	-1577
▁Unsupervised	-1578
ionality	-1579
▁Dimensionality	-1580
.[	-1581
cology	-1582
ptimization	-1583
▁Log	-1584
▁Optimization	-1585
▁Logistic	-1586
▁Gradient	-1587
mb	-1588
▁Int	-1589
10	-1590
▁civ	-1591
all	-1592
▁J	-1593
▁mor	-1594
▁(20	-1595
▁dis	-1596
▁or	-1597
▁all	-1598
iversity	-1599
co	-1600
▁2	-1601
19	-1602
▁us	-1603
▁par	-1604
▁will	-1605
▁rec	-1606
▁em	-1607
▁ph	-1608
ents	-1609
▁problem	-1610
ols	-1611
ike	-1612
ail	-1613
▁sc	-1614
ians	-1615
▁pe	-1616
▁arg	-1617
ertain	-1618
".	-1619
rat	-1620
▁disco	-1621
▁sources	-1622
▁bi	-1623
ae	-1624
▁op	-1625
ages	-1626
▁lim	-1627
ps	-1628
ection	-1629
ious	-1630
ival	-1631
▁law	-1632
cious	-1633
▁avail	-1634
▁det	-1635
▁lead	-1636
ulation	-1637
▁predic	-1638
▁Arch	-1639
▁available	-1640
ify	-1641
▁hel	-1642
ymb	-1643
▁Inter	-1644
▁science	-1645
dr	-1646
uil	-1647
▁sk	-1648
▁real	-1649
science	-1650
▁like	-1651
▁argu	-1652
▁value	-1653
ples	-1654
▁ide	-1655
▁comb	-1656
▁Scientific	-1657
▁conscious	-1658
olve	-1659
ident	-1660
▁buil	-1661
apt	-1662
▁integ	-1663
ital	-1664
▁mon	-1665
▁sens	-1666
▁ident	-1667
ries	-1668
▁past	-1669
▁require	-1670
▁technologies	-1671
▁limits	-1672
ty	-1673
▁AI	-1674
▁ideas	-1675
▁symb	-1676
▁archae	-1677
▁integr	-1678
▁thought	-1679
▁uncertain	-1680
▁consciousness	-1681
▁Mit	-1682
▁adapt	-1683
▁Com	-1684
▁events	-1685
▁person	-1686
▁previous	-1687
▁Mult	-1688
▁histor	-1689
▁sensit	-1690
▁traces	-1691
onstruct	-1692
▁combined	-1693
▁scientific	-1694
▁archaeological	-1695
▁reconstruct	-1696
▁cur	-1697
world	-1698
igital	-1699
▁moral	-1700
▁governments	-1701
uro	-1702
igor	-1703
oples	-1704
▁chall	-1705
▁existence	-1706
▁historians	-1707
oring	-1708
esting	-1709
▁peoples	-1710
▁sensitivity	-1711
▁mark	-1712
▁helps	-1713
▁nature	-1714
▁Careful	-1715
▁archival	-1716
▁Interpreting	-1717
enges	-1718
▁neuro	-1719
▁rigor	-1720
ffective	-1721
▁climate	-1722
▁adaptation	-1723
▁observation	-1724
ena	-1725
igation	-1726
ula	-1727
▁aim	-1728
▁discovery	-1729
▁challenges	-1730
▁developing	-1731
▁previously	-1732
▁Philosophical	-1733
▁free	-1734
ources	-1735
▁continue	-1736
▁uncertainty	-1737
▁Environmental	-1738
driven	-1739
▁monit	-1740
▁industries	-1741
▁predictions	-1742
▁parad	-1743
atology	-1744
▁employ	-1745
▁discipl	-1746
▁rigorous	-1747
▁evaluation	-1748
▁neuroscience	-1749
ills	-1750
umul	-1751
▁rais	-1752
▁phenom	-1753
▁Digital	-1754
▁testing	-1755
▁integrates	-1756
▁ecology	-1757
▁biod	-1758
atform	-1759
▁instr	-1760
▁phenomena	-1761
▁Mitigation	-1762
▁monitoring	-1763
▁climatology	-1764
▁biodiversity	-1765
ises	-1766
overs	-1767
▁clar	-1768
▁market	-1769
▁skills	-1770
▁disciplines	-1771
▁experiments	-1772
day	-1773
alance	-1774
portun	-1775
▁public	-1776
▁Debates	-1777
▁clarify	-1778
▁paradig	-1779
▁explores	-1780
▁conceptual	-1781
▁Philosophers	-1782
▁argumentation	-1783
acts	-1784
ivate	-1785
idiscipl	-1786
idisciplinary	-1787
ality	-1788
▁prom	-1789
▁creat	-1790
▁cumul	-1791
▁builds	-1792
▁opportun	-1793
▁platform	-1794
▁uncovers	-1795
▁paradigms	-1796
▁resources	-1797
▁cumulative	-1798
▁connections	-1799
ods	-1800
pts	-1801
▁depth	-1802
▁every	-1803
▁behavioral	-1804
▁instruction	-1805
▁Mac	-1806
▁shape	-1807
▁curric	-1808
▁balance	-1809
▁cultivate	-1810
▁languages	-1811
▁opportunities	-1812
▁mean	-1813
▁civic	-1814
▁raise	-1815
▁Effective	-1816
▁curricula	-1817
▁platforms	-1818
▁creativity	-1819
▁personalized	-1820
pre	-1821
ented	-1822
▁Recent	-1823
▁rem	-1824
▁regions	-1825
nder	-1826
▁genom	-1827
agn	-1828
▁welf	-1829
▁Under	-1830
ultural	-1831
▁welfare	-1832
▁understand	-1833
▁scar	-1834
▁alloc	-1835
▁drivers	-1836
▁Technological	-1837
hes	-1838
▁computation	-1839
roe	-1840
uals	-1841
▁pros	-1842
▁meaning	-1843
▁Understanding	-1844
ants	-1845
conomic	-1846
▁allocate	-1847
▁regulations	-1848
▁give	-1849
▁reli	-1850
▁scarce	-1851
ervation	-1852
perity	-1853
▁goods	-1854
▁inequ	-1855
▁Macroe	-1856
▁incent	-1857
▁symbols	-1858
▁incentives	-1859
▁inequality	-1860
▁prosperity	-1861
▁Macroeconomic	-1862
▁enabled	-1863
▁prompts	-1864
▁Pract	-1865
ifacts	-1866
preced	-1867
▁determ	-1868
▁modeling	-1869
▁unpreced	-1870
▁unprecedented	-1871
▁arts	-1872
ratives	-1873
▁artifacts	-1874
▁narratives	-1875
▁simulation	-1876
▁considering	-1877
▁rit	-1878
▁treat	-1879
▁evolve	-1880
cultural	-1881
itioners	-1882
▁identity	-1883
▁scalability	-1884
▁Practitioners	-1885
▁inters	-1886
▁rituals	-1887
▁everyday	-1888
▁reflection	-1889
▁preservation	-1890
riches	-1891
▁arises	-1892
▁enriches	-1893
▁usability	-1894
▁reliability	-1895
▁accelerating	-1896
▁intersection	-1897
vent	-1898
▁eng	-1899
agement	-1900
▁care	-1901
▁Commun	-1902
iate	-1903
▁Public	-1904
itable	-1905
▁remain	-1906
izes	-1907
pid	-1908
atics	-1909
▁appropr	-1910
▁treatment	-1911
▁culturally	-1912
ventions	-1913
▁genomics	-1914
agno	-1915
agnosis	-1916
▁determin	-1917
▁diagnosis	-1918
▁emphasizes	-1919
▁engagement	-1920
▁transformed	-1921
▁interventions	-1922
▁epid	-1923
emiology	-1924
▁equitable	-1925
▁prevention	-1926
▁informatics	-1927
▁epidemiology	-1928
▁Community	-1929
▁appropriate	-1930
▁sustainable	-1931
▁determinants	-1932
00	-1933
),	-1934
▁W	-1935
▁Science	-1936
▁Environment	-1937
igin	-1938
ved	-1939
4.	-1940
▁Technology	-1941
▁Philosophy	-1942
▁Ch	-1943
ieved	-1944
▁origin	-1945
erg	-1946
ived	-1947
rieved	-1948
▁An	-1949
▁Ret	-1950
▁Retrieved	-1951
▁original	-1952
▁3	-1953
.;	-1954
▁Art	-1955
▁Archived	-1956
ys	-1957
ergy	-1958
3.	-1959
▁Mathemat	-1960
▁(19	-1961
▁201	-1962
ey	-1963
-0	-1964
21	-1965
our	-1966
▁&	-1967
als	-1968
▁areas	-1969
ject	-1970
throp	-1971
▁Mathematics	-1972
▁do	-1973
▁So	-1974
▁Key	-1975
▁IS	-1976
oo	-1977
stronom	-1978
10.	-1979
5.	-1980
ourn	-1981
iew	-1982
▁Phys	-1983
..	-1984
▁Anthrop	-1985
▁Ge	-1986
stronomy	-1987
view	-1988
▁Physics	-1989
▁9	-1990
▁j	-1991
▁pp	-1992
▁Astronomy	-1993
▁Anthropology	-1994
:10.	-1995
▁doi	-1996
istics	-1997
▁Energy	-1998
11	-1999
ingu	-2000
▁Literature	-2001
sy	-2002
ooks	-2003
ia	-2004
sych	-2005
▁Bi	-2006
sychology	-2007
▁text	-2008
ograph	-2009
inguistics	-2010
▁Mus	-2011
▁Psychology	-2012
hen	-2013
▁Engineering	-2014
▁Linguistics	-2015
▁Chem	-2016
istry	-2017
▁Ecology	-2018
▁Chemistry	-2019
ID	-2020
▁Law	-2021
adem	-2022
▁Music	-2023
uss	-2024
igion	-2025
ferences	-2026
▁Religion	-2027
▁Ag	-2028
▁Medicine	-2029
▁2024.	-2030
▁Biology	-2031
▁Geograph	-2032
olit	-2033
▁Soci	-2034
ading	-2035
▁subject	-2036
books	-2037
78	-2038
▁Sociology	-2039
ademic	-2040
▁Polit	-2041
▁Politics	-2042
▁further	-2043
▁Geography	-2044
):	-2045
views	-2046
▁academic	-2047
▁Transport	-2048
▁textbooks	-2049
▁journ	-2050
riculture	-2051
rehen	-2052
▁comprehen	-2053
▁reading	-2054
▁journals	-2055
▁References	-2056
▁Agriculture	-2057
▁comprehensive	-2058
itecture	-2059
▁Architecture	-2060
▁5	-2061
▁consult	-2062
▁reviews	-2063
7.	-2064
16	-2065
▁4	-2066
▁it	-2067
▁Russ	-2068
▁term	-2069
▁Health	-2070
ould	-2071
8.	-2072
15	-2073
▁Russell	-2074
▁Nor	-2075
1.	-2076
.[2	-2077
2.	-2078
▁(200	-2079
vig	-2080
▁Norvig	-2081
▁civil	-2082
mber	-2083
▁(199	-2084
][	-2085
▁New	-2086
▁(2021	-2087
▁PM	-2088
▁Y	-2089
6.	-2090
ctob	-2091
ctober	-2092
ug	-2093
ber	-2094
:10.10	-2095
use	-2096
BN	-2097
▁200	-2098
▁ISBN	-2099
ears	-2100
14	-2101
▁October	-2102
23	-2103
▁2023	-2104
▁10	-2105
ter	-2106
▁2023.	-2107
9.	-2108
▁which	-2109
▁Al	-2110
18	-2111
12	-2112
SN	-2113
▁ISSN	-2114
▁years	-2115
▁978	-2116
umans	-2117
17	-2118
36	-2119
38	-2120
4,	-2121
ype	-2122
▁used	-2123
ode	-2124
▁(2021,	-2125
▁6	-2126
▁PMID	-2127
▁8	-2128
oss	-2129
ass	-2130
▁May	-2131
ish	-2132
une	-2133
▁Go	-2134
26	-2135
24	-2136
PD	-2137
end	-2138
▁were	-2139
0.	-2140
13	-2141
PDF	-2142
▁Bib	-2143
▁Mar	-2144
▁Artificial	-2145
000	-2146
CID	-2147
ace	-2148
code	-2149
▁humans	-2150
▁Bibcode	-2151
▁mathematics	-2152
▁civilization	-2153
anu	-2154
ove	-2155
irst	-2156
olution	-2157
ome	-2158
,[	-2159
▁would	-2160
▁Intelligence	-2161
ik	-2162
▁more	-2163
▁other	-2164
50	-2165
7]	-2166
The	-2167
pril	-2168
▁been	-2169
anuary	-2170
izations	-2171
volution	-2172
2]	-2173
.[4	-2174
ased	-2175
▁use	-2176
8,	-2177
▁Type	-2178
▁199	-2179
▁June	-2180
ovember	-2181
3]	-2182
ember	-2183
eptember	-2184
hev	-2185
ible	-2186
▁Hom	-2187
▁Human	-2188
29	-2189
ier	-2190
▁than	-2191
39	-2192
▁Af	-2193
▁ear	-2194
uly	-2195
ugust	-2196
6]	-2197
▁–	-2198
▁January	-2199
▁evolution	-2200
mer	-2201
ardas	-2202
▁energy	-2203
▁7	-2204
ame	-2205
ardashev	-2206
▁November	-2207
4]	-2208
5]	-2209
ind	-2210
▁April	-2211
ight	-2212
▁978-0	-2213
▁September	-2214
30	-2215
AI	-2216
ong	-2217
ree	-2218
1]	-2219
gra	-2220
▁2024	-2221
▁Kardashev	-2222
▁14	-2223
",	-2224
art	-2225
▁Pro	-2226
▁poss	-2227
27	-2228
▁may	-2229
:20	-2230
ork	-2231
▁26	-2232
▁first	-2233
80	-2234
5).	-2235
▁Homo	-2236
▁Afric	-2237
▁2020	-2238
8]	-2239
▁978-0-	-2240
▁includ	-2241
1,	-2242
▁Press	-2243
...	-2244
▁could	-2245
cember	-2246
▁University	-2247
40	-2248
,000	-2249
▁July	-2250
▁spec	-2251
25	-2252
35	-2253
▁15	-2254
▁dif	-2255
▁York	-2256
▁progra	-2257
▁18	-2258
ular	-2259
9]	-2260
▁II	-2261
▁some	-2262
▁Evolution	-2263
▁most	-2264
▁August	-2265
ax	-2266
▁search	-2267
▁Ex	-2268
▁act	-2269
28	-2270
▁he	-2271
▁December	-2272
1-	-2273
omin	-2274
60	-2275
wo	-2276
ins	-2277
ite	-2278
▁Ind	-2279
uring	-2280
2-	-2281
▁17	-2282
omet	-2283
int	-2284
▁16	-2285
▁How	-2286
▁25	-2287
▁mill	-2288
io	-2289
oh	-2290
err	-2291
▁(1	-2292
▁inc	-2293
cus	-2294
▁civilizations	-2295
▁Journ	-2296
▁2023).	-2297
▁ago	-2298
37	-2299
46	-2300
▁many	-2301
up	-2302
ase	-2303
uch	-2304
▁Mc	-2305
etic	-2306
▁homin	-2307
▁no	-2308
▁def	-2309
▁2019	-2310
▁chpt	-2311
man	-2312
meric	-2313
▁im	-2314
▁Americ	-2315
86	-2316
bru	-2317
ran	-2318
▁00	-2319
▁gen	-2320
bruary	-2321
▁species	-2322
▁Z	-2323
▁30	-2324
▁Journal	-2325
▁Le	-2326
▁log	-2327
▁class	-2328
7).	-2329
iss	-2330
▁Sp	-2331
22	-2332
les	-2333
ever	-2334
."	-2335
ond	-2336
imes	-2337
▁ris	-2338
▁March	-2339
▁incre	-2340
▁possible	-2341
45	-2342
mo	-2343
one	-2344
ithe	-2345
anderth	-2346
7-	-2347
▁et	-2348
▁Africa	-2349
90	-2350
▁'	-2351
1).	-2352
▁Ear	-2353
▁super	-2354
3,	-2355
cc	-2356
edia	-2357
▁2015.	-2358
▁tools	-2359
▁February	-2360
3–	-2361
eth	-2362
▁one	-2363
▁part	-2364
▁there	-2365
▁million	-2366
ev	-2367
▁0	-2368
ensis	-2369
▁early	-2370
▁el	-2371
▁sur	-2372
▁2020.	-2373
alc	-2374
ean	-2375
34	-2376
ogle	-2377
▁Joh	-2378
▁ext	-2379
▁form	-2380
▁artic	-2381
▁known	-2382
estr	-2383
urop	-2384
▁PMC	-2385
▁two	-2386
▁large	-2387
ze	-2388
ings	-2389
lear	-2390
▁Chr	-2391
▁Gre	-2392
▁(1998,	-2393
-08	-2394
▁(3	-2395
▁bec	-2396
▁pop	-2397
88	-2398
.20	-2399
ann	-2400
▁program	-2401
75	-2402
CL	-2403
ism	-2404
put	-2405
▁Wh	-2406
ssil	-2407
▁fossil	-2408
br	-2409
CLC	-2410
ough	-2411
▁gal	-2412
▁OCLC	-2413
ording	-2414
ublish	-2415
▁Neanderth	-2416
);	-2417
cl	-2418
ina	-2419
ogn	-2420
ists	-2421
tion	-2422
▁exp	-2423
jects	-2424
▁what	-2425
:10.11	-2426
▁Europ	-2427
▁using	-2428
▁developed	-2429
76	-2430
▁He	-2431
▁And	-2432
.,	-2433
79	-2434
ft	-2435
▁On	-2436
ption	-2437
▁number	-2438
▁his	-2439
▁call	-2440
94	-2441
eb	-2442
.).	-2443
2).	-2444
▁24	-2445
▁af	-2446
▁if	-2447
estrial	-2448
ost	-2449
ater	-2450
ield	-2451
▁Nil	-2452
▁978-	-2453
▁prov	-2454
▁2024).	-2455
▁Nature	-2456
errestrial	-2457
az	-2458
▁ge	-2459
▁John	-2460
▁calc	-2461
ithecus	-2462
af	-2463
ai	-2464
air	-2465
ick	-2466
▁Pr	-2467
▁er	-2468
ames	-2469
▁Mod	-2470
▁2025.	-2471
▁(2004,	-2472
▁[	-2473
ale	-2474
enn	-2475
ook	-2476
▁12	-2477
sson	-2478
unct	-2479
elligent	-2480
▁including	-2481
65	-2482
NA	-2483
the	-2484
▁based	-2485
raterrestrial	-2486
84	-2487
ri	-2488
8).	-2489
▁13	-2490
▁22	-2491
▁Ap	-2492
▁rad	-2493
▁Alex	-2494
▁Main	-2495
▁desc	-2496
▁sect	-2497
▁(2015	-2498
▁(2023	-2499
▁brain	-2500
▁Google	-2501
▁differ	-2502
▁American	-2503
9–	-2504
6).	-2505
ife	-2506
▁McC	-2507
▁Mor	-2508
▁sol	-2509
▁2018.	-2510
▁general	-2511
38/	-2512
cest	-2513
▁III	-2514
field	-2515
▁David	-2516
:10.100	-2517
:10.1038/	-2518
70	-2519
7–	-2520
aj	-2521
ky	-2522
▁28	-2523
ford	-2524
iens	-2525
oyer	-2526
▁earl	-2527
▁1991,	-2528
▁(2021),	-2529
▁Nilsson	-2530
ah	-2531
?".	-2532
▁cre	-2533
worth	-2534
▁Search	-2535
1–	-2536
33	-2537
ou	-2538
).[	-2539
att	-2540
bra	-2541
ise	-2542
▁23	-2543
ause	-2544
bers	-2545
Boyer	-2546
▁then	-2547
▁sever	-2548
5–	-2549
rey	-2550
▁(4	-2551
▁Har	-2552
▁any	-2553
▁(198	-2554
▁peri	-2555
apiens	-2556
ically	-2557
achines	-2558
▁computer	-2559
44	-2560
7/	-2561
pe	-2562
off	-2563
pen	-2564
▁BC	-2565
oole	-2566
ople	-2567
▁Sch	-2568
atter	-2569
ually	-2570
▁even	-2571
uclear	-2572
▁logic	-2573
▁space	-2574
▁calcul	-2575
▁called	-2576
▁compan	-2577
▁consum	-2578
▁(2023).	-2579
▁sapiens	-2580
96	-2581
CC	-2582
xt	-2583
9).	-2584
pos	-2585
▁Sh	-2586
atur	-2587
▁Man	-2588
irect	-2589
▁make	-2590
▁discover	-2591
.[3	-2592
ots	-2593
ton	-2594
▁We	-2595
▁Cam	-2596
▁Wor	-2597
▁ass	-2598
▁bel	-2599
▁comm	-2600
▁Christ	-2601
▁several	-2602
7,	-2603
16/	-2604
CCN	-2605
old	-2606
▁sm	-2607
fore	-2608
urce	-2609
▁Cre	-2610
▁est	-2611
▁vol	-2612
▁LCCN	-2613
▁News	-2614
▁made	-2615
▁2019.	-2616
▁Review	-2617
▁geomet	-2618
▁However	-2619
▁article	-2620
:10.1016/	-2621
2–	-2622
."[	-2623
ole	-2624
ont	-2625
▁21	-2626
▁our	-2627
gebra	-2628
▁Mack	-2629
▁Mich	-2630
▁after	-2631
▁funct	-2632
▁galax	-2633
▁should	-2634
5,	-2635
of	-2636
yl	-2637
hat	-2638
anze	-2639
▁(1):	-2640
impanze	-2641
ification	-2642
▁humanity	-2643
3-	-2644
PT	-2645
brid	-2646
▁ret	-2647
▁Poole	-2648
▁erect	-2649
▁ancest	-2650
▁people	-2651
▁Mackworth	-2652
56	-2653
berg	-2654
ivil	-2655
▁Civil	-2656
▁state	-2657
▁erectus	-2658
▁include	-2659
58	-2660
ya	-2661
orn	-2662
ency	-2663
iest	-2664
yson	-2665
▁clo	-2666
itive	-2667
olved	-2668
▁grow	-2669
▁learn	-2670
▁Modern	-2671
▁companies	-2672
99	-2673
vil	-2674
▁(5	-2675
▁Be	-2676
▁Gu	-2677
icro	-2678
▁Wik	-2679
▁cor	-2680
ather	-2681
ubble	-2682
▁star	-2683
▁being	-2684
ference	-2685
▁Societ	-2686
▁objects	-2687
▁publish	-2688
ox	-2689
▁(2	-2690
▁Br	-2691
ebel	-2692
uger	-2693
▁Dan	-2694
▁ins	-2695
▁sup	-2696
▁hand	-2697
▁much	-2698
▁same	-2699
ustral	-2700
▁(2020	-2701
▁Luger	-2702
▁during	-2703
▁period	-2704
ulations	-2705
▁algebra	-2706
▁describ	-2707
0]	-2708
ood	-2709
oun	-2710
red	-2711
son	-2712
▁(7	-2713
ones	-2714
▁old	-2715
Natur	-2716
ether	-2717
▁2022	-2718
▁Greek	-2719
▁There	-2720
▁Turing	-2721
▁partic	-2722
▁Society	-2723
▁different	-2724
110	-2725
:19	-2726
▁Se	-2727
▁bl	-2728
ases	-2729
ceed	-2730
eter	-2731
▁typ	-2732
▁show	-2733
iation	-2734
▁Dyson	-2735
▁elect	-2736
onomous	-2737
▁Goebel	-2738
▁Intern	-2739
▁Stubble	-2740
formation	-2741
▁researchers	-2742
▁Stubblefield	-2743
5-	-2744
64	-2745
69	-2746
73	-2747
74	-2748
:200	-2749
abil	-2750
mong	-2751
other	-2752
▁Will	-2753
▁disc	-2754
▁Earth	-2755
▁reach	-2756
▁source	-2757
▁because	-2758
▁numbers	-2759
▁mathematic	-2760
▁consumption	-2761
98	-2762
gy	-2763
ma	-2764
mit	-2765
not	-2766
▁US	-2767
ably	-2768
vier	-2769
▁app	-2770
▁gro	-2771
posed	-2772
▁prim	-2773
▁prob	-2774
▁These	-2775
▁Times	-2776
ciences	-2777
▁chimpanze	-2778
▁Neanderthal	-2779
oid	-2780
rol	-2781
uck	-2782
▁1.	-2783
▁up	-2784
enis	-2785
erns	-2786
ound	-2787
▁Acc	-2788
▁Ext	-2789
▁Sim	-2790
▁ent	-2791
aster	-2792
▁Rich	-2793
▁fact	-2794
▁line	-2795
ficult	-2796
▁James	-2797
▁small	-2798
▁detect	-2799
ustralop	-2800
Ar	-2801
3),	-2802
5),	-2803
ash	-2804
obs	-2805
.[10	-2806
arch	-2807
▁col	-2808
ocene	-2809
▁(3):	-2810
▁phys	-2811
▁vari	-2812
bridge	-2813
ission	-2814
ringer	-2815
though	-2816
▁(2019	-2817
▁System	-2818
▁2023-08	-2819
▁nuclear	-2820
▁programs	-2821
▁generative	-2822
IT	-2823
4).	-2824
ety	-2825
ica	-2826
ire	-2827
ore	-2828
rab	-2829
▁29	-2830
akes	-2831
▁pot	-2832
order	-2833
▁They	-2834
▁able	-2835
enisov	-2836
iverse	-2837
▁978-1-	-2838
▁African	-2839
▁European	-2840
▁Cambridge	-2841
▁algorithm	-2842
▁published	-2843
▁populations	-2844
5)	-2845
66	-2846
St	-2847
uz	-2848
gypt	-2849
▁100	-2850
afety	-2851
civil	-2852
▁Fran	-2853
▁vide	-2854
▁2024,	-2855
▁Other	-2856
▁agent	-2857
▁later	-2858
▁produ	-2859
▁2015).	-2860
▁Origin	-2861
▁agents	-2862
▁Crevier	-2863
▁theorem	-2864
▁geometry	-2865
▁Christian	-2866
▁difficult	-2867
▁particular	-2868
▁Mathematical	-2869
ew	-2870
–3	-2871
.[6	-2872
24.	-2873
3).	-2874
ius	-2875
▁By	-2876
soci	-2877
ained	-2878
▁char	-2879
▁list	-2880
▁mind	-2881
▁uses	-2882
▁risks	-2883
▁United	-2884
▁direct	-2885
▁future	-2886
▁potential	-2887
54	-2888
que	-2889
rod	-2890
line	-2891
▁Col	-2892
▁Gal	-2893
▁Met	-2894
▁Sam	-2895
▁sec	-2896
▁suc	-2897
0,000	-2898
actic	-2899
ellar	-2900
▁conc	-2901
▁risk	-2902
▁allow	-2903
▁genus	-2904
▁output	-2905
▁recogn	-2906
▁Richard	-2907
▁ability	-2908
▁Sciences	-2909
▁According	-2910
▁discovered	-2911
EE	-2912
cy	-2913
–4	-2914
15.	-2915
26/	-2916
ftw	-2917
▁Sa	-2918
.[14	-2919
10).	-2920
pect	-2921
rote	-2922
▁MIT	-2923
▁See	-2924
▁amo	-2925
▁occ	-2926
▁sel	-2927
acter	-2928
iddle	-2929
▁each	-2930
▁oper	-2931
ftware	-2932
▁(2011	-2933
▁(2014	-2934
▁India	-2935
▁among	-2936
▁autom	-2937
▁great	-2938
▁solve	-2939
anthrop	-2940
▁history	-2941
:10.1007/	-2942
:10.1126/	-2943
▁calculus	-2944
ki	-2945
here	-2946
ithm	-2947
like	-2948
read	-2949
soft	-2950
▁All	-2951
▁Ann	-2952
▁Eth	-2953
▁der	-2954
▁non	-2955
▁way	-2956
ified	-2957
thers	-2958
usion	-2959
▁auth	-2960
▁fair	-2961
▁World	-2962
▁estim	-2963
▁wrote	-2964
▁result	-2965
icrosoft	-2966
▁Denisov	-2967
▁certain	-2968
▁proposed	-2969
plications	-2970
▁supercivil	-2971
9,	-2972
De	-2973
we	-2974
.[8	-2975
ini	-2976
lor	-2977
val	-2978
▁27	-2979
▁To	-2980
.[24	-2981
ajor	-2982
edal	-2983
erms	-2984
ivid	-2985
▁Way	-2986
▁gra	-2987
inese	-2988
▁laws	-2989
▁scen	-2990
▁China	-2991
▁surve	-2992
▁common	-2993
▁Chinese	-2994
▁genetic	-2995
▁success	-2996
▁National	-2997
▁archived	-2998
▁according	-2999
▁retrieved	-3000
▁considered	-3001
▁International	-3002
3)	-3003
me	-3004
win	-3005
xim	-3006
▁(6	-3007
▁31	-3008
▁Ab	-3009
▁Pa	-3010
ivel	-3011
plan	-3012
▁Bab	-3013
▁Ben	-3014
▁ant	-3015
▁bas	-3016
▁wid	-3017
ively	-3018
orduck	-3019
▁level	-3020
▁Europe	-3021
▁became	-3022
▁galaxy	-3023
▁scenari	-3024
▁McCorduck	-3025
▁radiation	-3026
ck	-3027
de	-3028
wn	-3029
-3.	-3030
Sci	-3031
arr	-3032
ink	-3033
ium	-3034
▁Am	-3035
oman	-3036
▁DNA	-3037
▁att	-3038
antic	-3039
erson	-3040
iving	-3041
▁2016	-3042
▁foll	-3043
▁life	-3044
▁next	-3045
▁patt	-3046
uation	-3047
▁(2016	-3048
▁2023,	-3049
▁Simon	-3050
▁goals	-3051
▁order	-3052
▁Indian	-3053
▁hominin	-3054
▁network	-3055
▁earliest	-3056
▁hominins	-3057
▁machines	-3058
▁question	-3059
▁character	-3060
▁philosoph	-3061
▁intelligent	-3062
2)	-3063
yr	-3064
11.	-3065
36.	-3066
GPT	-3067
arn	-3068
ech	-3069
eds	-3070
mic	-3071
ron	-3072
▁11	-3073
▁Ac	-3074
atom	-3075
ffic	-3076
ylon	-3077
▁Vol	-3078
▁did	-3079
ikely	-3080
iness	-3081
▁Carl	-3082
▁Open	-3083
▁four	-3084
▁last	-3085
▁open	-3086
▁(2017	-3087
▁2021.	-3088
▁Andre	-3089
▁Egypt	-3090
▁Power	-3091
▁works	-3092
earning	-3093
▁Humans	-3094
▁appear	-3095
▁others	-3096
ithmetic	-3097
▁(2019).	-3098
▁addition	-3099
▁computing	-3100
▁autonomous	-3101
▁Neanderthals	-3102
▁classification	-3103
55	-3104
8-	-3105
nt	-3106
100	-3107
4),	-3108
ael	-3109
pha	-3110
ute	-3111
yth	-3112
▁El	-3113
▁es	-3114
▁po	-3115
.[11	-3116
.[16	-3117
comm	-3118
▁198	-3119
▁Gen	-3120
▁Par	-3121
▁Sum	-3122
▁beg	-3123
▁mis	-3124
▁(4):	-3125
August	-3126
▁(2022	-3127
▁2016.	-3128
▁Books	-3129
▁three	-3130
usiness	-3131
▁comple	-3132
▁rather	-3133
▁Babylon	-3134
▁control	-3135
▁fossils	-3136
▁without	-3137
▁Universe	-3138
▁astronom	-3139
".[	-3140
.[5	-3141
1),	-3142
27.	-3143
May	-3144
ets	-3145
gen	-3146
irc	-3147
tal	-3148
ude	-3149
▁AD	-3150
▁fa	-3151
.[15	-3152
epar	-3153
imal	-3154
isco	-3155
ming	-3156
▁Aut	-3157
▁Ber	-3158
▁Fut	-3159
▁Not	-3160
▁sit	-3161
ivacy	-3162
ondon	-3163
▁Alan	-3164
▁does	-3165
▁count	-3166
▁input	-3167
▁major	-3168
▁still	-3169
ulating	-3170
▁Daniel	-3171
▁London	-3172
▁rights	-3173
ceedings	-3174
▁Michael	-3175
▁content	-3176
▁whether	-3177
▁Learning	-3178
▁approxim	-3179
▁increase	-3180
▁described	-3181
▁Evolutionary	-3182
2/	-3183
4-	-3184
67	-3185
ha	-3186
Art	-3187
Xiv	-3188
ict	-3189
led	-3190
ock	-3191
ups	-3192
uzz	-3193
▁Hu	-3194
.[12	-3195
aper	-3196
cale	-3197
such	-3198
▁Mag	-3199
▁Sex	-3200
▁age	-3201
▁lab	-3202
▁own	-3203
human	-3204
oming	-3205
ulate	-3206
▁From	-3207
▁jobs	-3208
▁type	-3209
▁very	-3210
pecial	-3211
ported	-3212
▁First	-3213
▁defin	-3214
▁given	-3215
▁separ	-3216
mission	-3217
▁States	-3218
▁growth	-3219
▁provid	-3220
▁robots	-3221
▁discuss	-3222
▁earlier	-3223
▁Springer	-3224
▁function	-3225
Artificial	-3226
▁relations	-3227
▁solutions	-3228
▁Proceedings	-3229
▁chimpanzees	-3230
▁Civilizations	-3231
▁mathematicians	-3232
.5	-3233
1)	-3234
89	-3235
8–	-3236
);[	-3237
13.	-3238
1][	-3239
aid	-3240
ett	-3241
her	-3242
iam	-3243
▁Do	-3244
▁Ma	-3245
▁No	-3246
.[20	-3247
Comp	-3248
axim	-3249
back	-3250
ense	-3251
reed	-3252
azine	-3253
▁case	-3254
▁main	-3255
▁vers	-3256
ardian	-3257
inning	-3258
ipedal	-3259
▁Early	-3260
▁arXiv	-3261
ception	-3262
▁(1993,	-3263
▁Middle	-3264
▁likely	-3265
▁making	-3266
▁matter	-3267
pecially	-3268
▁defined	-3269
▁explain	-3270
▁trained	-3271
cientists	-3272
▁Guardian	-3273
▁Australop	-3274
-5	-3275
59	-3276
68	-3277
8)	-3278
97	-3279
rd	-3280
.[7	-3281
2),	-3282
mid	-3283
▁3,	-3284
▁Ev	-3285
▁Ho	-3286
.[13	-3287
.[19	-3288
.[26	-3289
June	-3290
▁Age	-3291
▁Bro	-3292
▁Fin	-3293
▁lay	-3294
▁top	-3295
cular	-3296
etics	-3297
▁Arab	-3298
▁Geor	-3299
▁Know	-3300
▁Pale	-3301
▁Some	-3302
▁near	-3303
▁sent	-3304
isions	-3305
▁Peter	-3306
▁black	-3307
▁proof	-3308
▁somet	-3309
▁terms	-3310
cluding	-3311
▁Robert	-3312
▁larger	-3313
▁(2011).	-3314
▁hominid	-3315
▁articles	-3316
▁software	-3317
▁increased	-3318
information	-3319
▁Computational	-3320
87	-3321
BC	-3322
au	-3323
120	-3324
21-	-3325
fus	-3326
igr	-3327
rel	-3328
▁3.	-3329
▁Us	-3330
aces	-3331
bert	-3332
gest	-3333
▁Cal	-3334
▁Mat	-3335
▁Reg	-3336
▁Rep	-3337
▁cos	-3338
▁now	-3339
aving	-3340
ected	-3341
etary	-3342
inton	-3343
xford	-3344
▁Cent	-3345
▁Paul	-3346
▁Wall	-3347
▁circ	-3348
▁game	-3349
▁surv	-3350
▁thus	-3351
iction	-3352
nature	-3353
▁dated	-3354
▁times	-3355
▁types	-3356
commend	-3357
▁Hinton	-3358
▁Instit	-3359
▁Introd	-3360
▁Proble	-3361
▁online	-3362
▁evolved	-3363
▁2023-08-	-3364
▁ancestor	-3365
▁fairness	-3366
▁patterns	-3367
▁Microsoft	-3368
▁especially	-3369
intelligence	-3370
▁possibility	-3371
▁evolutionary	-3372
")	-3373
04	-3374
4–	-3375
93	-3376
AS	-3377
ne	-3378
16.	-3379
arg	-3380
esc	-3381
ily	-3382
irt	-3383
ler	-3384
med	-3385
osh	-3386
ott	-3387
res	-3388
ume	-3389
urn	-3390
▁Mo	-3391
.[28	-3392
What	-3393
ator	-3394
book	-3395
▁But	-3396
▁Ken	-3397
▁Vin	-3398
▁cat	-3399
▁far	-3400
▁iss	-3401
▁too	-3402
insky	-3403
ithic	-3404
orill	-3405
▁Chat	-3406
▁Pyth	-3407
▁apes	-3408
▁take	-3409
▁view	-3410
atures	-3411
igonom	-3412
▁belie	-3413
October	-3414
▁Future	-3415
▁action	-3416
▁argued	-3417
igonomet	-3418
▁Vincent	-3419
▁experts	-3420
▁however	-3421
▁leading	-3422
▁signals	-3423
including	-3424
▁Magazine	-3425
▁suggested	-3426
An	-3427
Go	-3428
by	-3429
li	-3430
sp	-3431
▁X	-3432
.),	-3433
12.	-3434
19.	-3435
36-	-3436
7),	-3437
mar	-3438
ste	-3439
▁1,	-3440
▁2,	-3441
▁2.	-3442
▁35	-3443
▁36	-3444
.200	-3445
.[18	-3446
agor	-3447
amed	-3448
idel	-3449
ired	-3450
ling	-3451
▁Per	-3452
▁Str	-3453
▁Val	-3454
▁eas	-3455
▁get	-3456
▁see	-3457
▁sex	-3458
.[46]	-3459
earle	-3460
▁Drey	-3461
▁Thom	-3462
▁book	-3463
▁dest	-3464
▁find	-3465
▁help	-3466
▁test	-3467
Comput	-3468
▁Analy	-3469
▁Found	-3470
▁Roman	-3471
▁Sagan	-3472
▁indic	-3473
▁inves	-3474
▁means	-3475
▁might	-3476
▁right	-3477
▁video	-3478
issions	-3479
▁2019).	-3480
▁Oxford	-3481
▁Schmid	-3482
▁Searle	-3483
▁before	-3484
▁cannot	-3485
▁center	-3486
▁safety	-3487
▁second	-3488
▁Dreyfus	-3489
▁actions	-3490
▁centers	-3491
▁individ	-3492
▁various	-3493
▁primates	-3494
▁projects	-3495
▁decisions	-3496
0–	-3497
ET	-3498
uk	-3499
),[	-3500
-00	-3501
75.	-3502
ETI	-3503
aim	-3504
ucl	-3505
umb	-3506
▁0-	-3507
▁Di	-3508
▁Gl	-3509
July	-3510
clop	-3511
duct	-3512
eman	-3513
uber	-3514
ules	-3515
ying	-3516
▁(18	-3517
▁Nic	-3518
▁Num	-3519
▁One	-3520
▁end	-3521
▁min	-3522
March	-3523
duced	-3524
ening	-3525
imple	-3526
▁Bost	-3527
▁Life	-3528
▁Step	-3529
▁What	-3530
▁With	-3531
▁goal	-3532
▁tool	-3533
▁event	-3534
▁group	-3535
▁organ	-3536
▁Doming	-3537
▁Edward	-3538
▁associ	-3539
▁econom	-3540
▁layers	-3541
idelberg	-3542
ognitive	-3543
▁(2010).	-3544
▁Publish	-3545
▁billion	-3546
anthropus	-3547
▁physical	-3548
▁Babylonian	-3549
▁probability	-3550
9/	-3551
;[	-3552
go	-3553
mi	-3554
–2	-3555
-10	-3556
20.	-3557
cid	-3558
iar	-3559
ifi	-3560
lam	-3561
low	-3562
til	-3563
▁38	-3564
▁98	-3565
▁Sm	-3566
▁hy	-3567
arth	-3568
avec	-3569
ella	-3570
▁300	-3571
▁Act	-3572
▁Big	-3573
▁Ele	-3574
▁Old	-3575
▁Pre	-3576
▁Ris	-3577
▁Wil	-3578
▁ast	-3579
▁erg	-3580
Human	-3581
achin	-3582
huber	-3583
ience	-3584
ither	-3585
ready	-3586
▁(196	-3587
▁(197	-3588
▁1990	-3589
▁2010	-3590
▁Asia	-3591
▁Brit	-3592
▁Tech	-3593
▁cost	-3594
▁emer	-3595
▁redu	-3596
▁rele	-3597
▁sing	-3598
▁vast	-3599
ipedia	-3600
▁Alpha	-3601
▁Brian	-3602
▁Geoff	-3603
▁intro	-3604
▁manip	-3605
▁radio	-3606
▁solar	-3607
:10.110	-3608
▁2017).	-3609
▁better	-3610
▁intern	-3611
▁record	-3612
▁widely	-3613
▁(2007).	-3614
▁978-0-5	-3615
▁Moravec	-3616
▁Origins	-3617
▁Wayback	-3618
▁another	-3619
▁authors	-3620
▁bipedal	-3621
▁support	-3622
▁Business	-3623
▁Domingos	-3624
▁Machines	-3625
▁Pythagor	-3626
▁identify	-3627
▁solution	-3628
▁Institute	-3629
▁equations	-3630
▁hypothesis	-3631
▁Schmidhuber	-3632
▁environment	-3633
▁Introduction	-3634
6)	-3635
14.	-3636
28.	-3637
2][	-3638
415	-3639
How	-3640
aic	-3641
aku	-3642
eer	-3643
esi	-3644
ham	-3645
own	-3646
vin	-3647
▁Me	-3648
.[23	-3649
atts	-3650
ynth	-3651
▁BBC	-3652
▁Can	-3653
▁Sol	-3654
▁You	-3655
▁dev	-3656
▁leg	-3657
▁lit	-3658
▁med	-3659
▁sum	-3660
April	-3661
asing	-3662
ender	-3663
▁Math	-3664
▁SETI	-3665
▁ever	-3666
▁harm	-3667
▁migr	-3668
▁pass	-3669
▁targ	-3670
anford	-3671
imedia	-3672
▁2014.	-3673
▁2016,	-3674
▁Robot	-3675
▁habil	-3676
▁until	-3677
olithic	-3678
ossible	-3679
▁Andrew	-3680
▁simple	-3681
▁survey	-3682
▁transl	-3683
▁(2006).	-3684
▁(2017).	-3685
▁(2020),	-3686
▁America	-3687
▁Develop	-3688
▁Systems	-3689
▁product	-3690
▁Egyptian	-3691
▁electric	-3692
▁galactic	-3693
▁numerals	-3694
▁powerful	-3695
▁produced	-3696
▁reported	-3697
▁computers	-3698
▁selection	-3699
▁population	-3700
▁throughout	-3701
49	-3702
Ne	-3703
.[9	-3704
18.	-3705
25.	-3706
780	-3707
8-0	-3708
aut	-3709
con	-3710
els	-3711
rum	-3712
ush	-3713
war	-3714
▁44	-3715
▁8,	-3716
▁Fr	-3717
▁Zh	-3718
.[21	-3719
.[25	-3720
.[29	-3721
.[34	-3722
aced	-3723
apan	-3724
ison	-3725
opia	-3726
rect	-3727
ript	-3728
▁(27	-3729
▁10.	-3730
▁20,	-3731
▁Bar	-3732
▁Blo	-3733
▁Dem	-3734
▁GPT	-3735
▁Mad	-3736
▁Mil	-3737
▁Stu	-3738
▁ded	-3739
▁few	-3740
▁you	-3741
ademy	-3742
ances	-3743
arthy	-3744
arwin	-3745
ately	-3746
based	-3747
erman	-3748
ished	-3749
ithec	-3750
thing	-3751
▁(2):	-3752
▁Good	-3753
▁Kaku	-3754
▁conf	-3755
▁late	-3756
▁mass	-3757
▁word	-3758
ulated	-3759
▁(1986	-3760
▁2022.	-3761
▁Appro	-3762
▁Homin	-3763
▁South	-3764
▁White	-3765
▁agree	-3766
▁close	-3767
▁domin	-3768
▁infer	-3769
▁maxim	-3770
▁multi	-3771
▁paper	-3772
▁skull	-3773
▁spect	-3774
▁stone	-3775
stellar	-3776
▁2018).	-3777
▁2022).	-3778
▁2025).	-3779
▁Minsky	-3780
▁symbol	-3781
esiensis	-3782
fficient	-3783
▁(1999).	-3784
▁(2008).	-3785
▁(2014).	-3786
▁Academy	-3787
▁Bostrom	-3788
▁ChatGPT	-3789
▁William	-3790
▁already	-3791
▁habilis	-3792
▁learned	-3793
▁provide	-3794
▁Geoffrey	-3795
▁McCarthy	-3796
▁galaxies	-3797
▁Wikipedia	-3798
▁estimated	-3799
▁recommend	-3800
▁structure	-3801
▁definition	-3802
▁recognition	-3803
▁relationship	-3804
▁misinformation	-3805
":	-3806
2,	-3807
9)	-3808
9-	-3809
CM	-3810
Ch	-3811
In	-3812
dl	-3813
hy	-3814
▁/	-3815
▁u	-3816
▁§	-3817
▁—	-3818
00.	-3819
200	-3820
21.	-3821
3-0	-3822
5][	-3823
8),	-3824
83.	-3825
9),	-3826
ato	-3827
ger	-3828
iff	-3829
min	-3830
ner	-3831
oks	-3832
ows	-3833
–12	-3834
▁Gr	-3835
▁IV	-3836
▁If	-3837
▁Sc	-3838
▁Yu	-3839
".[4	-3840
.[39	-3841
atic	-3842
know	-3843
most	-3844
over	-3845
uras	-3846
wood	-3847
work	-3848
▁Hen	-3849
▁Pap	-3850
▁Sur	-3851
▁Tim	-3852
▁Use	-3853
▁hdl	-3854
▁ill	-3855
▁meg	-3856
▁pat	-3857
▁via	-3858
ental	-3859
ieval	-3860
ochon	-3861
tinct	-3862
uclid	-3863
▁East	-3864
▁Ency	-3865
▁Face	-3866
▁answ	-3867
▁bias	-3868
▁play	-3869
▁said	-3870
▁(2018	-3871
▁0036-	-3872
▁Chris	-3873
▁Disco	-3874
▁Euras	-3875
▁table	-3876
▁thous	-3877
anguage	-3878
ymbolic	-3879
▁2020).	-3880
▁George	-3881
▁Global	-3882
▁amount	-3883
▁anatom	-3884
▁cosmic	-3885
▁enough	-3886
▁establ	-3887
▁groups	-3888
▁having	-3889
▁report	-3890
▁sphere	-3891
▁(2005).	-3892
▁(2015).	-3893
▁Alexand	-3894
▁finding	-3895
▁present	-3896
:10.1002/	-3897
▁Although	-3898
▁Encyclop	-3899
▁although	-3900
▁features	-3901
▁followed	-3902
▁interpret	-3903
▁statement	-3904
▁typically	-3905
▁Conference	-3906
▁heidelberg	-3907
▁introduced	-3908
▁Intelligent	-3909
▁heidelbergensis	-3910
43	-3911
85	-3912
ca	-3913
gl	-3914
ho	-3915
ua	-3916
-9.	-3917
119	-3918
17.	-3919
EEE	-3920
alf	-3921
anc	-3922
ava	-3923
bit	-3924
bur	-3925
hys	-3926
iqu	-3927
nas	-3928
ung	-3929
▁6,	-3930
▁Im	-3931
▁Up	-3932
▁bo	-3933
▁ve	-3934
azon	-3935
ered	-3936
erts	-3937
imin	-3938
rong	-3939
ustr	-3940
▁(10	-3941
▁Kar	-3942
▁Kur	-3943
▁Nik	-3944
▁Ple	-3945
▁Ray	-3946
▁Ste	-3947
▁cop	-3948
▁vte	-3949
drial	-3950
ended	-3951
otion	-3952
scale	-3953
▁0028	-3954
▁2000	-3955
▁Cons	-3956
▁IEEE	-3957
▁Pers	-3958
▁Sing	-3959
▁Stud	-3960
▁prof	-3961
▁sequ	-3962
cision	-3963
ifiers	-3964
verage	-3965
▁Bloom	-3966
▁Class	-3967
▁Islam	-3968
▁Japan	-3969
▁amoun	-3970
▁basis	-3971
▁light	-3972
ularity	-3973
▁2016).	-3974
▁OpenAI	-3975
▁Sexual	-3976
▁Stuart	-3977
▁compet	-3978
▁higher	-3979
▁invest	-3980
▁oldest	-3981
▁showed	-3982
▁speech	-3983
▁states	-3984
▁useful	-3985
istocene	-3986
▁correct	-3987
ipithecus	-3988
▁Algorith	-3989
artificial	-3990
ochondrial	-3991
▁beginning	-3992
▁emissions	-3993
▁therefore	-3994
▁Publishing	-3995
▁automation	-3996
▁increasing	-3997
▁trigonomet	-3998
▁Information	-3999
▁implications	-4000
4)	-4001
48	-4002
RC	-4003
ba	-4004
be	-4005
hn	-4006
-04	-4007
22.	-4008
248	-4009
47-	-4010
5-0	-4011
70.	-4012
ago	-4013
amp	-4014
fin	-4015
uin	-4016
▁4,	-4017
▁Co	-4018
▁ax	-4019
▁gr	-4020
,[18	-4021
.[36	-4022
bots	-4023
ench	-4024
enef	-4025
erve	-4026
ilip	-4027
ique	-4028
odes	-4029
ogen	-4030
oted	-4031
reet	-4032
▁(12	-4033
▁(22	-4034
▁14,	-4035
▁ACM	-4036
▁Atl	-4037
▁Bas	-4038
▁His	-4039
▁Inc	-4040
▁Jon	-4041
▁Med	-4042
▁Ren	-4043
▁Sem	-4044
▁Tex	-4045
▁fil	-4046
▁hap	-4047
▁pos	-4048
alend	-4049
inter	-4050
▁1960	-4051
▁1980	-4052
▁Bern	-4053
▁Dart	-4054
▁Full	-4055
▁Greg	-4056
▁Hill	-4057
▁Many	-4058
▁West	-4059
▁rest	-4060
▁says	-4061
▁true	-4062
▁virt	-4063
▁year	-4064
ansion	-4065
▁2007.	-4066
▁Space	-4067
▁Think	-4068
▁diver	-4069
▁exact	-4070
▁focus	-4071
▁fract	-4072
▁games	-4073
▁image	-4074
▁makes	-4075
▁watts	-4076
January	-4077
▁2014).	-4078
▁50,000	-4079
▁Martin	-4080
▁Social	-4081
▁argues	-4082
▁destro	-4083
▁gorill	-4084
▁object	-4085
▁occurr	-4086
▁region	-4087
▁single	-4088
olecular	-4089
ologists	-4090
▁(2022).	-4091
▁Another	-4092
▁Roberts	-4093
▁amounts	-4094
▁average	-4095
▁collect	-4096
▁culture	-4097
▁dispers	-4098
▁extinct	-4099
▁society	-4100
▁Approach	-4101
▁Atlantic	-4102
▁observed	-4103
▁scenario	-4104
▁scenarios	-4105
▁technique	-4106
▁Denisovans	-4107
▁additional	-4108
▁associated	-4109
▁perception	-4110
▁philosophy	-4111
▁scientists	-4112
▁Pleistocene	-4113
▁programming	-4114
"[	-4115
05	-4116
47	-4117
7)	-4118
95	-4119
LP	-4120
On	-4121
Re	-4122
ST	-4123
aa	-4124
bs	-4125
{\	-4126
▁π	-4127
-2.	-4128
-4.	-4129
-7.	-4130
121	-4131
230	-4132
39.	-4133
978	-4134
ird	-4135
olf	-4136
ret	-4137
sey	-4138
tan	-4139
–21	-4140
Mind	-4141
ales	-4142
bate	-4143
elet	-4144
iang	-4145
ilot	-4146
inct	-4147
irms	-4148
olai	-4149
ream	-4150
well	-4151
▁(11	-4152
▁(16	-4153
▁(21	-4154
▁197	-4155
▁24,	-4156
▁28,	-4157
▁Bra	-4158
▁Cop	-4159
▁Our	-4160
▁Rad	-4161
▁Sil	-4162
▁mya	-4163
▁squ	-4164
breed	-4165
ecies	-4166
eless	-4167
epend	-4168
icago	-4169
inson	-4170
known	-4171
level	-4172
oseph	-4173
quist	-4174
xture	-4175
▁Hard	-4176
▁Metz	-4177
▁Mind	-4178
▁chat	-4179
▁emit	-4180
▁publ	-4181
▁self	-4182
▁tech	-4183
▁tree	-4184
-0836.	-4185
Google	-4186
aining	-4187
entury	-4188
▁(2012	-4189
▁Kenya	-4190
▁Their	-4191
▁assum	-4192
▁forms	-4193
▁limit	-4194
▁named	-4195
▁place	-4196
▁stand	-4197
▁2011).	-4198
▁2023),	-4199
▁Amazon	-4200
▁Arabic	-4201
▁Darwin	-4202
▁Ethics	-4203
▁Safety	-4204
▁Street	-4205
▁Thomas	-4206
▁calend	-4207
▁sexual	-4208
▁traits	-4209
▁volume	-4210
▁(2009).	-4211
▁(2016).	-4212
▁Ancient	-4213
▁British	-4214
▁General	-4215
▁Nikolai	-4216
▁Problem	-4217
▁Stephen	-4218
▁anthrop	-4219
▁concern	-4220
▁continu	-4221
▁created	-4222
▁effects	-4223
▁equival	-4224
▁lineage	-4225
▁predict	-4226
▁privacy	-4227
▁produce	-4228
▁suggest	-4229
:10.1109/	-4230
versation	-4231
▁DeepMind	-4232
▁Newquist	-4233
▁position	-4234
▁2023-08-0	-4235
▁Bloomberg	-4236
▁cognitive	-4237
▁inference	-4238
▁sometimes	-4239
▁0028-0836.	-4240
▁Arithmetic	-4241
▁Regulation	-4242
▁arithmetic	-4243
▁conference	-4244
▁eventually	-4245
▁existential	-4246
▁particularly	-4247
▁mathematician	-4248
▁reinforcement	-4249
Af	-4250
Ex	-4251
].	-4252
hi	-4253
–5	-4254
"),	-4255
2-0	-4256
73/	-4257
7][	-4258
8][	-4259
NAS	-4260
Why	-4261
ane	-4262
ara	-4263
ats	-4264
cil	-4265
der	-4266
enk	-4267
han	-4268
iol	-4269
ram	-4270
ria	-4271
ube	-4272
ven	-4273
yle	-4274
▁(9	-4275
▁39	-4276
▁4.	-4277
▁5,	-4278
.[1]	-4279
.[27	-4280
1.1.	-4281
PNAS	-4282
atin	-4283
augh	-4284
cons	-4285
eral	-4286
esis	-4287
eyer	-4288
hood	-4289
idus	-4290
pnas	-4291
ters	-4292
▁15,	-4293
▁18,	-4294
▁Fre	-4295
▁Gro	-4296
▁Sub	-4297
▁Sut	-4298
▁Tra	-4299
▁Ver	-4300
▁ann	-4301
▁mit	-4302
▁tel	-4303
▁unl	-4304
▁ver	-4305
0002-	-4306
8075.	-4307
evant	-4308
gener	-4309
itude	-4310
liest	-4311
oking	-4312
ornia	-4313
pired	-4314
place	-4315
plete	-4316
▁1950	-4317
▁Gold	-4318
▁Harv	-4319
▁Horn	-4320
▁List	-4321
▁Mill	-4322
▁clos	-4323
▁deal	-4324
▁flor	-4325
▁half	-4326
▁pale	-4327
▁seem	-4328
astrop	-4329
ington	-4330
iocene	-4331
uctive	-4332
▁Colle	-4333
▁Exper	-4334
▁Jones	-4335
▁Stone	-4336
▁argue	-4337
▁benef	-4338
▁graph	-4339
▁infin	-4340
▁morph	-4341
▁plant	-4342
▁today	-4343
▁total	-4344
vention	-4345
▁Associ	-4346
▁Brooks	-4347
▁Euclid	-4348
▁Michio	-4349
▁Networ	-4350
▁assist	-4351
▁create	-4352
▁genome	-4353
▁highly	-4354
▁longer	-4355
▁needed	-4356
▁target	-4357
▁threat	-4358
▁travel	-4359
▁(2015),	-4360
▁allowed	-4361
▁analyze	-4362
▁current	-4363
▁decimal	-4364
▁exactly	-4365
▁express	-4366
▁limited	-4367
▁reached	-4368
▁remains	-4369
:10.1073/	-4370
▁Stanford	-4371
▁actually	-4372
▁concerns	-4373
▁creating	-4374
▁designed	-4375
▁ergaster	-4376
▁expected	-4377
▁includes	-4378
▁measures	-4379
▁searches	-4380
▁spectrum	-4381
▁symbolic	-4382
▁transmit	-4383
▁Wikimedia	-4384
▁countries	-4385
▁functions	-4386
▁0036-8075.	-4387
▁chimpanzee	-4388
▁generation	-4389
▁identified	-4390
▁Development	-4391
▁Paleolithic	-4392
▁Civilization	-4393
▁floresiensis	-4394
▁representation	-4395
-6	-4396
77	-4397
EO	-4398
En	-4399
NN	-4400
OR	-4401
Or	-4402
Th	-4403
Un	-4404
po	-4405
ym	-4406
▁-	-4407
0).	-4408
1-0	-4409
136	-4410
160	-4411
17/	-4412
2-4	-4413
24]	-4414
38.	-4415
38]	-4416
3][	-4417
87.	-4418
9][	-4419
Hum	-4420
New	-4421
ald	-4422
amb	-4423
any	-4424
eat	-4425
lem	-4426
log	-4427
omo	-4428
oms	-4429
rem	-4430
uel	-4431
way	-4432
wen	-4433
zer	-4434
▁"'	-4435
▁EU	-4436
▁Ke	-4437
▁Pe	-4438
▁Ri	-4439
▁ut	-4440
....	-4441
118]	-4442
STOR	-4443
Seer	-4444
aken	-4445
amia	-4446
dren	-4447
esop	-4448
evin	-4449
mers	-4450
mill	-4451
ocal	-4452
onic	-4453
oper	-4454
orph	-4455
plic	-4456
umin	-4457
▁(15	-4458
▁(28	-4459
▁10,	-4460
▁120	-4461
▁196	-4462
▁Alt	-4463
▁Ard	-4464
▁CEO	-4465
▁Don	-4466
▁Hol	-4467
▁Kat	-4468
▁Lee	-4469
▁NRC	-4470
▁Ram	-4471
▁Rog	-4472
▁Tur	-4473
▁bad	-4474
▁big	-4475
▁deg	-4476
▁mov	-4477
▁nor	-4478
▁obt	-4479
▁ram	-4480
▁spl	-4481
▁ten	-4482
.[23]	-4483
:2010	-4484
:2016	-4485
SeerX	-4486
atest	-4487
ceive	-4488
cilit	-4489
icles	-4490
izing	-4491
mouth	-4492
osion	-4493
rical	-4494
rican	-4495
stant	-4496
wards	-4497
▁(195	-4498
▁2025	-4499
▁Cite	-4500
▁Decl	-4501
▁Expl	-4502
▁Foss	-4503
▁Mars	-4504
▁Maya	-4505
▁Prim	-4506
▁Wang	-4507
▁Wood	-4508
▁Work	-4509
▁boom	-4510
▁fail	-4511
▁magn	-4512
▁ones	-4513
▁serv	-4514
▁warn	-4515
▁ways	-4516
▁weap	-4517
00,000	-4518
enture	-4519
esopot	-4520
rophys	-4521
▁(1988	-4522
▁Autom	-4523
▁Basic	-4524
▁Henry	-4525
▁JSTOR	-4526
▁Latin	-4527
▁Smith	-4528
▁Three	-4529
▁attem	-4530
▁chess	-4531
▁claim	-4532
▁copyr	-4533
▁expon	-4534
▁firms	-4535
▁issue	-4536
▁nodes	-4537
▁point	-4538
▁speed	-4539
▁users	-4540
illance	-4541
ivities	-4542
mixture	-4543
uations	-4544
▁(2020,	-4545
▁2010).	-4546
▁Joseph	-4547
▁Marcus	-4548
▁Robots	-4549
▁Summit	-4550
▁Theory	-4551
▁actors	-4552
▁author	-4553
▁choose	-4554
▁either	-4555
▁images	-4556
▁possib	-4557
▁signal	-4558
▁solved	-4559
▁square	-4560
▁strong	-4561
▁things	-4562
▁values	-4563
▁videos	-4564
achinery	-4565
breeding	-4566
oanthrop	-4567
ribution	-4568
symbolic	-4569
▁(1990).	-4570
▁(2012).	-4571
▁10.1.1.	-4572
▁Chicago	-4573
▁Copilot	-4574
▁Eurasia	-4575
▁Harvard	-4576
▁Neander	-4577
▁Privacy	-4578
▁Section	-4579
▁funding	-4580
▁outputs	-4581
▁popular	-4582
▁project	-4583
▁ramidus	-4584
▁univers	-4585
ategories	-4586
▁Anderson	-4587
▁Behavior	-4588
▁Networks	-4589
▁Physical	-4590
▁believed	-4591
▁calendar	-4592
▁classify	-4593
▁compared	-4594
▁examples	-4595
▁interest	-4596
▁provides	-4597
▁released	-4598
▁required	-4599
▁Alexander	-4600
▁CiteSeerX	-4601
▁Computing	-4602
▁Dartmouth	-4603
▁Economist	-4604
▁Knowledge	-4605
▁ancestors	-4606
▁australop	-4607
▁expansion	-4608
▁equivalent	-4609
▁government	-4610
▁individual	-4611
▁revolution	-4612
▁successful	-4613
▁transition	-4614
▁Applications	-4615
▁Encyclopedia	-4616
-8	-4617
1/	-4618
6/	-4619
Al	-4620
wh	-4621
–6	-4622
▁←	-4623
-5.	-4624
08.	-4625
26]	-4626
41.	-4627
45.	-4628
45/	-4629
6][	-4630
77.	-4631
80/	-4632
][4	-4633
ano	-4634
dis	-4635
ids	-4636
ken	-4637
kii	-4638
org	-4639
ped	-4640
ucy	-4641
×10	-4642
–11	-4643
–20	-4644
▁1–	-4645
▁BP	-4646
▁Ha	-4647
▁La	-4648
▁Os	-4649
▁Ro	-4650
▁fl	-4651
▁ir	-4652
▁la	-4653
▁vs	-4654
▁{\	-4655
.[4]	-4656
86-0	-4657
HumE	-4658
Tube	-4659
anda	-4660
ecut	-4661
even	-4662
icon	-4663
inds	-4664
ires	-4665
kins	-4666
peci	-4667
rees	-4668
unch	-4669
yond	-4670
▁(13	-4671
▁113	-4672
▁23,	-4673
▁25,	-4674
▁Fra	-4675
▁Hal	-4676
▁Haw	-4677
▁McG	-4678
▁Mel	-4679
▁Sah	-4680
▁Sus	-4681
▁adv	-4682
▁low	-4683
▁neg	-4684
China	-4685
JHumE	-4686
amily	-4687
aries	-4688
ciple	-4689
eline	-4690
haust	-4691
orton	-4692
▁Also	-4693
▁Calc	-4694
▁Coun	-4695
▁Form	-4696
▁Fund	-4697
▁Jack	-4698
▁Mary	-4699
▁More	-4700
▁Pier	-4701
▁Wash	-4702
▁When	-4703
▁Wong	-4704
▁best	-4705
▁chil	-4706
▁date	-4707
▁disp	-4708
▁init	-4709
▁just	-4710
▁land	-4711
▁mega	-4712
▁mole	-4713
▁neur	-4714
▁rise	-4715
▁turn	-4716
Origin	-4717
icians	-4718
inator	-4719
ishing	-4720
▁2011.	-4721
▁2013.	-4722
▁Brain	-4723
▁Huang	-4724
▁Super	-4725
▁Union	-4726
▁colon	-4727
▁comes	-4728
▁least	-4729
▁split	-4730
▁start	-4731
▁whose	-4732
aterial	-4733
▁(2015)	-4734
▁Anatom	-4735
▁almost	-4736
▁debate	-4737
▁depend	-4738
▁little	-4739
November	-4740
ognition	-4741
▁(2021).	-4742
▁College	-4743
▁Current	-4744
▁Freeman	-4745
▁Nuclear	-4746
▁Studies	-4747
▁archaic	-4748
▁facilit	-4749
▁feature	-4750
▁fiction	-4751
▁medical	-4752
▁serious	-4753
▁studied	-4754
:10.1017/	-4755
:10.1080/	-4756
:10.1145/	-4757
September	-4758
opithecus	-4759
plication	-4760
▁Analysis	-4761
▁Earliest	-4762
▁Elements	-4763
▁Language	-4764
▁Robotics	-4765
▁Stringer	-4766
▁anything	-4767
▁complete	-4768
▁directly	-4769
▁gorillas	-4770
▁notation	-4771
▁occurred	-4772
▁separate	-4773
▁standard	-4774
▁Denisovan	-4775
▁Molecular	-4776
▁detection	-4777
▁determine	-4778
▁distribut	-4779
▁thousands	-4780
intelligent	-4781
▁Foundation	-4782
▁Washington	-4783
▁impossible	-4784
▁Association	-4785
▁differences	-4786
▁exponential	-4787
▁transmission	-4788
▁characterized	-4789
▁international	-4790
)[	-4791
83	-4792
CD	-4793
CO	-4794
Ms	-4795
OM	-4796
TA	-4797
US	-4798
ix	-4799
ww	-4800
yb	-4801
▁=	-4802
▁×	-4803
▁у	-4804
-09	-4805
106	-4806
10]	-4807
195	-4808
199	-4809
26.	-4810
27-	-4811
318	-4812
35–	-4813
46/	-4814
4][	-4815
540	-4816
59.	-4817
78]	-4818
80.	-4819
91.	-4820
92.	-4821
97.	-4822
ECD	-4823
PAS	-4824
bes	-4825
edu	-4826
hib	-4827
key	-4828
kin	-4829
mod	-4830
ool	-4831
ras	-4832
rig	-4833
uls	-4834
urs	-4835
usc	-4836
ánt	-4837
–18	-4838
▁("	-4839
▁37	-4840
▁60	-4841
▁jo	-4842
.[17	-4843
.[22	-4844
.[35	-4845
.[44	-4846
24).	-4847
Beat	-4848
Chat	-4849
Cont	-4850
ades	-4851
aude	-4852
ault	-4853
ests	-4854
hase	-4855
ifer	-4856
imet	-4857
indu	-4858
ione	-4859
kows	-4860
ller	-4861
olas	-4862
ping	-4863
ront	-4864
ruff	-4865
ured	-4866
▁(23	-4867
▁13,	-4868
▁16,	-4869
▁17.	-4870
▁27,	-4871
▁Ast	-4872
▁Beg	-4873
▁Bur	-4874
▁Emp	-4875
▁Fox	-4876
▁Gem	-4877
▁Gra	-4878
▁Ian	-4879
▁Mal	-4880
▁Pit	-4881
▁Rod	-4882
▁San	-4883
▁Sec	-4884
▁Wal	-4885
▁bon	-4886
▁gre	-4887
▁him	-4888
▁loc	-4889
▁pol	-4890
▁van	-4891
athan	-4892
ators	-4893
going	-4894
ially	-4895
iopia	-4896
itary	-4897
right	-4898
ucing	-4899
ántai	-4900
▁Crit	-4901
▁Evan	-4902
▁Java	-4903
▁Kenn	-4904
▁Meta	-4905
▁Mile	-4906
▁OECD	-4907
▁Part	-4908
▁Plan	-4909
▁Post	-4910
▁Text	-4911
▁drug	-4912
▁gave	-4913
▁good	-4914
▁hole	-4915
▁name	-4916
▁prec	-4917
▁race	-4918
▁surf	-4919
50,000	-4920
action	-4921
called	-4922
ceived	-4923
ematic	-4924
iology	-4925
issing	-4926
ometry	-4927
unting	-4928
▁(1980	-4929
▁2025,	-4930
▁Clark	-4931
▁Genom	-4932
▁Hindu	-4933
▁Kevin	-4934
▁Marsh	-4935
▁North	-4936
▁State	-4937
▁Upper	-4938
▁basic	-4939
▁birth	-4940
▁built	-4941
▁champ	-4942
▁clear	-4943
▁facts	-4944
▁incom	-4945
▁inher	-4946
▁label	-4947
▁match	-4948
▁media	-4949
▁month	-4950
▁occur	-4951
▁relat	-4952
▁rules	-4953
▁spher	-4954
);[118]	-4955
actions	-4956
ilities	-4957
imatter	-4958
mediate	-4959
mentary	-4960
ributed	-4961
solving	-4962
▁(2015,	-4963
▁2006).	-4964
▁2007).	-4965
▁Claude	-4966
▁Fossil	-4967
▁Gemini	-4968
▁Kaplan	-4969
▁Philip	-4970
▁Steven	-4971
▁biased	-4972
▁conver	-4973
▁define	-4974
▁degree	-4975
▁demand	-4976
▁entire	-4977
▁exceed	-4978
▁explan	-4979
▁extrem	-4980
▁follow	-4981
▁passed	-4982
▁places	-4983
▁proved	-4984
▁skelet	-4985
▁(2004),	-4986
▁(2022),	-4987
▁(2024).	-4988
▁Gregory	-4989
▁Islamic	-4990
▁Project	-4991
▁Venture	-4992
▁becomes	-4993
▁capabil	-4994
▁contact	-4995
▁derived	-4996
▁exhaust	-4997
▁genomes	-4998
▁growing	-4999
▁notably	-5000
▁profess	-5001
▁smaller	-5002
▁started	-5003
▁subsequ	-5004
▁usually	-5005
apithecus	-5006
generated	-5007
▁Congress	-5008
▁Ethiopia	-5009
▁Galántai	-5010
▁accurate	-5011
▁achieved	-5012
▁building	-5013
▁distingu	-5014
▁diverged	-5015
▁generate	-5016
▁material	-5017
▁services	-5018
▁simulate	-5019
esopotamia	-5020
▁algebraic	-5021
▁catastrop	-5022
▁construct	-5023
▁contained	-5024
▁explosion	-5025
▁Biological	-5026
▁Revolution	-5027
▁difficulty	-5028
▁operations	-5029
▁situations	-5030
▁VentureBeat	-5031
▁application	-5032
▁classifiers	-5033
▁represented	-5034
▁Ardipithecus	-5035
▁Conversation	-5036
▁astronomical	-5037
▁capabilities	-5038
▁surveillance	-5039
-3	-5040
-7	-5041
09	-5042
6,	-5043
Ab	-5044
Ap	-5045
ES	-5046
bo	-5047
▁~	-5048
-0.	-5049
-6.	-5050
-65	-5051
..4	-5052
115	-5053
11–	-5054
2):	-5055
20]	-5056
23]	-5057
29]	-5058
30]	-5059
6),	-5060
6):	-5061
60.	-5062
68.	-5063
93/	-5064
DNA	-5065
Rob	-5066
][3	-5067
car	-5068
den	-5069
ips	-5070
mas	-5071
nam	-5072
reg	-5073
rin	-5074
uit	-5075
zen	-5076
–13	-5077
▁(8	-5078
▁0.	-5079
▁34	-5080
▁3–	-5081
▁7,	-5082
▁7.	-5083
▁cm	-5084
-07-	-5085
107.	-5086
331.	-5087
Arab	-5088
Math	-5089
aker	-5090
hard	-5091
hava	-5092
hing	-5093
ites	-5094
keep	-5095
kind	-5096
mark	-5097
obos	-5098
oids	-5099
oyal	-5100
rast	-5101
rich	-5102
sing	-5103
sure	-5104
ucle	-5105
ving	-5106
▁(24	-5107
▁(30	-5108
▁(75	-5109
▁026	-5110
▁036	-5111
▁17,	-5112
▁214	-5113
▁Ang	-5114
▁Are	-5115
▁Ass	-5116
▁Bor	-5117
▁Bry	-5118
▁Del	-5119
▁Gib	-5120
▁McK	-5121
▁Pas	-5122
▁Sov	-5123
▁Sun	-5124
▁Two	-5125
▁Web	-5126
▁Zol	-5127
▁abs	-5128
▁alt	-5129
▁axi	-5130
▁del	-5131
▁den	-5132
▁ele	-5133
▁uns	-5134
▁var	-5135
.[24]	-5136
:2011	-5137
:2015	-5138
ample	-5139
arian	-5140
arily	-5141
eland	-5142
ernal	-5143
ictor	-5144
iders	-5145
obile	-5146
onaut	-5147
opher	-5148
rared	-5149
ronic	-5150
stein	-5151
style	-5152
uster	-5153
▁(6):	-5154
▁2015	-5155
▁Bing	-5156
▁Char	-5157
▁Fair	-5158
▁Fred	-5159
▁Game	-5160
▁Kurz	-5161
▁Peng	-5162
▁Penn	-5163
▁Ques	-5164
▁Repr	-5165
▁Week	-5166
▁afar	-5167
▁bone	-5168
▁capt	-5169
▁cran	-5170
▁dise	-5171
▁kill	-5172
▁lack	-5173
▁move	-5174
▁once	-5175
▁quas	-5176
▁repl	-5177
▁tend	-5178
▁upon	-5179
ancial	-5180
ilbert	-5181
mework	-5182
stract	-5183
vision	-5184
ylogen	-5185
▁(2013	-5186
▁0002-	-5187
▁0027-	-5188
▁2017.	-5189
▁About	-5190
▁After	-5191
▁Calif	-5192
▁Moore	-5193
▁avoid	-5194
▁capac	-5195
▁cover	-5196
▁disag	-5197
▁extra	-5198
▁force	-5199
▁gradu	-5200
▁lived	-5201
▁lumin	-5202
▁older	-5203
▁prote	-5204
▁seems	-5205
▁shows	-5206
▁white	-5207
▁wrong	-5208
2-4331.	-5209
41586-0	-5210
display	-5211
eration	-5212
inceton	-5213
▁2021).	-5214
▁During	-5215
▁Impact	-5216
▁Norton	-5217
▁Series	-5218
▁Soviet	-5219
▁Though	-5220
▁Valley	-5221
▁Wilson	-5222
▁Zoltan	-5223
▁allows	-5224
▁analyz	-5225
▁circum	-5226
▁commer	-5227
▁detail	-5228
▁expect	-5229
▁happen	-5230
▁latter	-5231
▁refers	-5232
▁regard	-5233
▁status	-5234
atistics	-5235
ependent	-5236
▁(1997).	-5237
▁(1998).	-5238
▁(2001).	-5239
▁(2016),	-5240
▁(2018).	-5241
▁Bernard	-5242
▁Century	-5243
▁Company	-5244
▁Penguin	-5245
▁Russian	-5246
▁YouTube	-5247
▁answers	-5248
▁believe	-5249
▁destroy	-5250
▁formula	-5251
▁greater	-5252
▁harness	-5253
▁looking	-5254
▁neurons	-5255
▁numeral	-5256
▁observe	-5257
▁origins	-5258
▁periods	-5259
▁virtual	-5260
planetary	-5261
ributions	-5262
▁Decision	-5263
▁Internet	-5264
▁inspired	-5265
▁recently	-5266
▁theorems	-5267
employment	-5268
▁Discovery	-5269
▁Princeton	-5270
▁Represent	-5271
▁afarensis	-5272
▁astronomy	-5273
▁geometric	-5274
▁listening	-5275
▁magnitude	-5276
▁planetary	-5277
▁presented	-5278
▁principle	-5279
▁situation	-5280
▁0362-4331.	-5281
▁Alexandria	-5282
▁California	-5283
▁Commission	-5284
▁Geographic	-5285
▁activities	-5286
▁astronomer	-5287
▁classified	-5288
▁experience	-5289
▁extinction	-5290
▁morphology	-5291
displaystyle	-5292
▁Christopher	-5293
▁Pythagorean	-5294
▁calculation	-5295
▁discoveries	-5296
▁publication	-5297
▁architecture	-5298
▁increasingly	-5299
▁approximately	-5300
▁interbreeding	-5301
▁mitochondrial	-5302
▁relationships	-5303
▁australopithec	-5304
▁multiplication	-5305
1:	-5306
32	-5307
5%	-5308
53	-5309
Fe	-5310
II	-5311
Tr	-5312
bl	-5313
kl	-5314
tt	-5315
–8	-5316
").	-5317
'".	-5318
,[3	-5319
-06	-5320
-8.	-5321
02.	-5322
140	-5323
16]	-5324
33.	-5325
412	-5326
50]	-5327
Cun	-5328
LMs	-5329
Rev	-5330
][2	-5331
add	-5332
amm	-5333
ana	-5334
bot	-5335
ded	-5336
dro	-5337
ief	-5338
ift	-5339
inn	-5340
iro	-5341
ker	-5342
let	-5343
mon	-5344
ney	-5345
pus	-5346
ris	-5347
sec	-5348
ske	-5349
vid	-5350
wan	-5351
zel	-5352
▁40	-5353
▁45	-5354
▁9.	-5355
▁90	-5356
▁99	-5357
▁Dr	-5358
▁Je	-5359
▁sl	-5360
▁—–	-5361
.[2]	-5362
978-	-5363
Deep	-5364
aiss	-5365
akey	-5366
alog	-5367
cher	-5368
come	-5369
edes	-5370
enko	-5371
eria	-5372
gram	-5373
iant	-5374
jhev	-5375
lack	-5376
open	-5377
ount	-5378
ours	-5379
rick	-5380
rown	-5381
ties	-5382
urev	-5383
uzzy	-5384
warm	-5385
weil	-5386
what	-5387
year	-5388
▁(17	-5389
▁(29	-5390
▁12,	-5391
▁16.	-5392
▁21.	-5393
▁22,	-5394
▁COM	-5395
▁Clo	-5396
▁Hor	-5397
▁Jac	-5398
▁Lem	-5399
▁NLP	-5400
▁Non	-5401
▁Out	-5402
▁Pal	-5403
▁Pat	-5404
▁Pet	-5405
▁Rem	-5406
▁Spe	-5407
▁Vox	-5408
▁War	-5409
▁Wis	-5410
▁ban	-5411
▁fem	-5412
▁imm	-5413
▁inv	-5414
▁mal	-5415
▁men	-5416
▁mic	-5417
▁off	-5418
▁saw	-5419
▁veh	-5420
▁war	-5421
▁web	-5422
▁www	-5423
.[18]	-5424
2484.	-5425
8424.	-5426
Gener	-5427
ables	-5428
astro	-5429
elled	-5430
ellen	-5431
emann	-5432
endor	-5433
error	-5434
fakes	-5435
ighth	-5436
minus	-5437
omial	-5438
orpor	-5439
ovich	-5440
ratic	-5441
romos	-5442
urity	-5443
vidia	-5444
▁(5):	-5445
▁1970	-5446
▁2012	-5447
▁Benj	-5448
▁Cade	-5449
▁Cell	-5450
▁Even	-5451
▁Flor	-5452
▁Katz	-5453
▁Need	-5454
▁Nick	-5455
▁Risk	-5456
▁Star	-5457
▁Yosh	-5458
▁cars	-5459
▁easy	-5460
▁fast	-5461
▁gene	-5462
▁grid	-5463
▁held	-5464
▁idea	-5465
▁left	-5466
▁math	-5467
▁prem	-5468
▁seen	-5469
▁user	-5470
Arabic	-5471
angers	-5472
encies	-5473
ennium	-5474
iently	-5475
ighted	-5476
imedes	-5477
iquity	-5478
ormous	-5479
respon	-5480
rovers	-5481
skever	-5482
source	-5483
undred	-5484
▁(1965	-5485
▁(2000	-5486
▁0047-	-5487
▁2022,	-5488
▁Carol	-5489
▁Frank	-5490
▁LeCun	-5491
▁Media	-5492
▁Model	-5493
▁Notes	-5494
▁Plato	-5495
▁Radio	-5496
▁Since	-5497
▁Steve	-5498
▁Using	-5499
▁Verge	-5500
▁While	-5501
▁bench	-5502
▁books	-5503
▁cases	-5504
▁datab	-5505
▁datas	-5506
▁divid	-5507
▁exhib	-5508
▁kinds	-5509
▁knows	-5510
▁needs	-5511
▁noted	-5512
▁phase	-5513
▁prime	-5514
▁rough	-5515
▁shown	-5516
▁thumb	-5517
▁trees	-5518
▁wavel	-5519
Develop	-5520
annurev	-5521
aration	-5522
archand	-5523
ategies	-5524
emantic	-5525
ography	-5526
playing	-5527
▁(1994,	-5528
▁(1998)	-5529
▁(1999,	-5530
▁2012).	-5531
▁2024),	-5532
▁Ancest	-5533
▁Annual	-5534
▁COMPAS	-5535
▁Coming	-5536
▁Forbes	-5537
▁Govern	-5538
▁Harari	-5539
▁Leakey	-5540
▁Marvin	-5541
▁Samuel	-5542
▁Struct	-5543
▁announ	-5544
▁beyond	-5545
▁facial	-5546
▁fusion	-5547
▁inputs	-5548
▁launch	-5549
▁living	-5550
▁logics	-5551
▁really	-5552
▁reduce	-5553
▁select	-5554
▁telesc	-5555
▁topics	-5556
February	-5557
acuation	-5558
aissance	-5559
cientist	-5560
pectives	-5561
▁(1991).	-5562
▁(2004).	-5563
▁(2020).	-5564
▁Council	-5565
▁Kenneth	-5566
▁Library	-5567
▁bonobos	-5568
▁complet	-5569
▁digital	-5570
▁logical	-5571
▁patents	-5572
▁surface	-5573
▁working	-5574
▁writing	-5575
:10.1146/	-5576
abilistic	-5577
ciousness	-5578
ersonhood	-5579
ystematic	-5580
▁Kurzweil	-5581
▁Problems	-5582
▁Software	-5583
▁abstract	-5584
▁champion	-5585
▁changing	-5586
▁chatbots	-5587
▁included	-5588
▁intellig	-5589
▁involves	-5590
▁premises	-5591
▁probably	-5592
▁products	-5593
▁provided	-5594
▁vehicles	-5595
Generative	-5596
▁Algorithm	-5597
▁Machinery	-5598
▁Sutskever	-5599
▁concerned	-5600
▁discussed	-5601
▁economics	-5602
▁migration	-5603
▁separated	-5604
▁something	-5605
onstruction	-5606
▁0027-8424.	-5607
▁0047-2484.	-5608
▁978-0-521-	-5609
▁Autonomous	-5610
▁Lemarchand	-5611
▁Neandertal	-5612
▁appearance	-5613
▁assistants	-5614
▁biological	-5615
▁bipedalism	-5616
▁developers	-5617
▁functional	-5618
▁incomplete	-5619
▁subsequent	-5620
▁wavelength	-5621
▁Arithmetica	-5622
▁Renaissance	-5623
▁established	-5624
▁potentially	-5625
▁preferences	-5626
▁responsible	-5627
▁translation	-5628
:10.1007/978-	-5629
▁Interstellar	-5630
▁manipulating	-5631
▁paleoanthrop	-5632
▁transparency	-5633
▁unemployment	-5634
▁contributions	-5635
▁philosophical	-5636
▁Mathematicians	-5637
▁backpropagation	-5638
-4	-5639
AP	-5640
Sc	-5641
Sh	-5642
To	-5643
gu	-5644
ka	-5645
uf	-5646
wa	-5647
▁|	-5648
0][	-5649
1..	-5650
10-	-5651
11-	-5652
19]	-5653
205	-5654
223	-5655
226	-5656
23.	-5657
30.	-5658
39]	-5659
4..	-5660
429	-5661
44.	-5662
45–	-5663
57.	-5664
60]	-5665
674	-5666
74.	-5667
:10	-5668
Sec	-5669
aus	-5670
bon	-5671
che	-5672
cos	-5673
edi	-5674
eed	-5675
gar	-5676
hal	-5677
hma	-5678
hop	-5679
ibn	-5680
iri	-5681
irk	-5682
itz	-5683
lds	-5684
ois	-5685
oto	-5686
rot	-5687
teo	-5688
tra	-5689
uan	-5690
uff	-5691
vey	-5692
yan	-5693
▁58	-5694
▁59	-5695
▁65	-5696
▁70	-5697
▁DA	-5698
▁Fl	-5699
▁Mu	-5700
▁Ta	-5701
▁Wi	-5702
0000	-5703
21-0	-5704
25).	-5705
anth	-5706
arry	-5707
bing	-5708
bons	-5709
cean	-5710
clus	-5711
coll	-5712
fold	-5713
icit	-5714
oday	-5715
omon	-5716
ords	-5717
osed	-5718
otyp	-5719
owan	-5720
pite	-5721
pler	-5722
racy	-5723
raft	-5724
real	-5725
ried	-5726
rose	-5727
thur	-5728
time	-5729
wide	-5730
with	-5731
▁(25	-5732
▁(26	-5733
▁117	-5734
▁157	-5735
▁186	-5736
▁210	-5737
▁30,	-5738
▁Ant	-5739
▁Ash	-5740
▁Bad	-5741
▁CTA	-5742
▁Dun	-5743
▁Her	-5744
▁Inf	-5745
▁Jul	-5746
▁Lim	-5747
▁Max	-5748
▁Men	-5749
▁Mur	-5750
▁Pan	-5751
▁aff	-5752
▁ang	-5753
▁aud	-5754
▁dig	-5755
▁exc	-5756
▁foc	-5757
▁hol	-5758
▁map	-5759
▁mil	-5760
▁say	-5761
▁why	-5762
▁—–−	-5763
-03-0	-5764
▁	-5765
e	-5766
a	-5767
t	-5768
n	-5769
i	-5770
s	-5771
r	-5772
o	-5773
d	-5774
l	-5775
h	-5776
c	-5777
p	-5778
m	-5779
u	-5780
g	-5781
f	-5782
,	-5783
y	-5784
v	-5785
w	-5786
.	-5787
b	-5788
x	-5789
k	-5790
z	-5791
q	-5792
T	-5793
A	-5794
E	-5795
I	-5796
R	-5797
P	-5798
-	-5799
S	-5800
L	-5801
U	-5802
O	-5803
H	-5804
C	-5805
G	-5806
F	-5807
M	-5808
j	-5809
1	-5810
D	-5811
K	-5812
2	-5813
N	-5814
0	-5815
9	-5816
#	-5817
V	-5818
B	-5819
:	-5820
3	-5821
4	-5822
(	-5823
)	-5824
"	-5825
5	-5826
8	-5827
6	-5828
7	-5829
[	-5830
]	-5831
Q	-5832
;	-5833
J	-5834
–	-5835
W	-5836
'	-5837
/	-5838
&	-5839
Y	-5840
?	-5841
Z	-5842
X	-5843
%	-5844
—	-5845
о	-5846
é	-5847
а	-5848
и	-5849
е	-5850
ā	-5851
т	-5852
н	-5853
{	-5854
}	-5855
×	-5856
р	-5857
\	-5858
у	-5859
ö	-5860
ü	-5861
к	-5862
л	-5863
с	-5864
_	-5865
§	-5866
á	-5867
=	-5868
−	-5869
$	-5870
π	-5871
м	-5872
в	-5873
г	-5874
п	-5875
+	-5876
←	-5877
~	-5878
з	-5879
|	-5880
ī	-5881
è	-5882
ó	-5883
α	-5884
ь	-5885
!	-5886
<	-5887
í	-5888
ч	-5889
ä	-5890
б	-5891
≈	-5892
*	-5893
>	-5894
®	-5895
ő	-5896
ц	-5897
ṣ	-5898
’	-5899
°	-5900
Č	-5901
ū	-5902
μ	-5903
М	-5904
д	-5905
ж	-5906
•	-5907
⁠	-5908
タ	-5909
デ	-5910
ー	-5911
@	-5912
æ	-5913
ç	-5914
ï	-5915
ú	-5916
š	-5917
ы	-5918
я	-5919
⁡	-5920
É	-5921
à	-5922
ć	-5923
ł	-5924
ż	-5925
А	-5926
Д	-5927
Л	-5928
С	-5929
Э	-5930
й	-5931
х	-5932
ш	-5933
э	-5934
ю	-5935
ṇ	-5936
、	-5937
く	-5938
で	-5939
の	-5940
ア	-5941
ィ	-5942
エ	-5943
セ	-5944
ヌ	-5945
ビ	-5946
ン	-5947
企	-5948
出	-5949
原	-5950
新	-5951
日	-5952
本	-5953
検	-5954
業	-5955
発	-5956
討	-5957
設	-5958
資	-5959
近	-5960
^	-5961
À	-5962
Â	-5963
Ø	-5964
Ü	-5965
â	-5966
ë	-5967
î	-5968
ò	-5969
ô	-5970
č	-5971
ę	-5972
Ĝ	-5973
ğ	-5974
Ś	-5975
Ž	-5976
ʹ	-5977
Ω	-5978
ά	-5979
η	-5980
θ	-5981
λ	-5982
К	-5983
П	-5984
ф	-5985
ё	-5986
ḥ	-5987
ữ	-5988
‘	-5989
√	-5990
≡	-5991
≥	-5992
周	-5993
算	-5994
經	-5995
